{
  "<s>": 0,
  "<pad>": 1,
  "</s>": 2,
  "<unk>": 3,
  ",": 4,
  ".": 5,
  "\u2581de": 6,
  "-": 7,
  "\u2581a": 8,
  ":": 9,
  "\u2581...": 10,
  "\u2581(": 11,
  "'": 12,
  "\u2581i": 13,
  "\u2581la": 14,
  "\u2581-": 15,
  "\u2581e": 16,
  ")": 17,
  "\u2581na": 18,
  "\u2019": 19,
  "\u2581en": 20,
  "\u2581sa": 21,
  "\u2581": 22,
  "\u2581\u043d\u0430": 23,
  "?": 24,
  "\u2581o": 25,
  "...": 26,
  "\u2581que": 27,
  "\u2581in": 28,
  "\u2581\u0438": 29,
  "!": 30,
  "\u2581d": 31,
  "\u2581se": 32,
  "\u2581\"": 33,
  "\u2581da": 34,
  "\u2581un": 35,
  "\u2581\u2013": 36,
  "\u3002": 37,
  "\u2581l": 38,
  "\u2581di": 39,
  "in": 40,
  "\u2581\u201c": 41,
  "\u3001": 42,
  "\u2581\u0432": 43,
  "ar": 44,
  "\u2581og": 45,
  "as": 46,
  "\u2581y": 47,
  "\u2581an": 48,
  "en": 49,
  "es": 50,
  "u": 51,
  "\u060c": 52,
  "an": 53,
  "\u2581je": 54,
  "s": 55,
  "et": 56,
  "/": 57,
  "\u2581A": 58,
  "at": 59,
  "is": 60,
  "\u2581do": 61,
  "\u2581er": 62,
  "os": 63,
  "\"": 64,
  "\u2581ti": 65,
  "y": 66,
  "\u2581z": 67,
  "\u2581S": 68,
  "\u2581v": 69,
  "\u2581s": 70,
  "al": 71,
  "it": 72,
  "\u2581\u0437\u0430": 73,
  "er": 74,
  "n": 75,
  "\u2581el": 76,
  "\u2581u": 77,
  ";": 78,
  "\u2581ka": 79,
  "\u7684": 80,
  "us": 81,
  "on": 82,
  "\u2581die": 83,
  "\u2581\u0648": 84,
  "o": 85,
  "\u2581le": 86,
  "\u2581\u2022": 87,
  "t": 88,
  "\u201d": 89,
  "a": 90,
  "el": 91,
  "\u2581B": 92,
  "\u2581si": 93,
  "\u2581\u00ab": 94,
  "ak": 95,
  "\u2581\u00b7": 96,
  "\u2581\u0434\u0430": 97,
  "\u2581L": 98,
  "am": 99,
  "\u2581M": 100,
  "i": 101,
  "\u2581ya": 102,
  "\u2581T": 103,
  "\u2581del": 104,
  "\u2581D": 105,
  "k": 106,
  "ul": 107,
  "\u2581\u043d\u0435": 108,
  "\u2581der": 109,
  "em": 110,
  "un": 111,
  "il": 112,
  "h": 113,
  "\u2581ja": 114,
  "\u2581nga": 115,
  "\u2581\u0443": 116,
  "\u2581is": 117,
  "\u2581et": 118,
  "\u2581per": 119,
  "\u2581at": 120,
  "ir": 121,
  "na": 122,
  "te": 123,
  "\u2581al": 124,
  "m": 125,
  "ja": 126,
  "\u2581w": 127,
  "\u2581to": 128,
  "\u2581K": 129,
  "z": 130,
  "r": 131,
  "\u2581P": 132,
  "\u2581te": 133,
  "\u2581ar": 134,
  "\u2581C": 135,
  "\u2581n": 136,
  "\u2581_": 137,
  "\u2581no": 138,
  "im": 139,
  "\u2581p\u00e5": 140,
  "\u2581V": 141,
  "ad": 142,
  "c": 143,
  "l": 144,
  "om": 145,
  "\u2581:": 146,
  "\u2581ang": 147,
  "ta": 148,
  "\u2581on": 149,
  "ing": 150,
  "\u2581yang": 151,
  "\u2581es": 152,
  "ia": 153,
  "\u2581ng": 154,
  "p": 155,
  "ne": 156,
  "f": 157,
  "\u2581G": 158,
  "\u2581N": 159,
  "g": 160,
  "\u25811": 161,
  "\u2581du": 162,
  "\u2581med": 163,
  "\u2581dan": 164,
  "b": 165,
  "je": 166,
  "ur": 167,
  "\u25812": 168,
  "um": 169,
  "ik": 170,
  "ti": 171,
  "\u2581m": 172,
  "d": 173,
  "\u2581para": 174,
  "\u2581\u0441\u0435": 175,
  "\u2581H": 176,
  "\u2581O": 177,
  "or": 178,
  "\u2581den": 179,
  "\u2581R": 180,
  "\u2581za": 181,
  "\u2581som": 182,
  "\u2581op": 183,
  "\u2581t\u00eb": 184,
  "e": 185,
  "\u2581\u062f": 186,
  "\u2581ne": 187,
  ").": 188,
  "j": 189,
  "\u2581om": 190,
  "v": 191,
  "id": 192,
  "\u2581for": 193,
  "\u2581van": 194,
  "\u2581til": 195,
  "ie": 196,
  "\u00e9": 197,
  "ka": 198,
  "ek": 199,
  "\u2581det": 200,
  "ni": 201,
  "ol": 202,
  "\u2581I": 203,
  "ana": 204,
  "\u25813": 205,
  "ut": 206,
  "ch": 207,
  "\u2581t": 208,
  "\u0964": 209,
  "\u2581\u0441": 210,
  "\u2581F": 211,
  "re": 212,
  "\u2581E": 213,
  "ang": 214,
  "\u2581\u201e": 215,
  "\u2581och": 216,
  "ada": 217,
  "\u2581\u043f\u043e": 218,
  "),": 219,
  "ra": 220,
  "\u2581,": 221,
  "\u2581av": 222,
  "w": 223,
  "\u2581les": 224,
  "\u2581k": 225,
  "ok": 226,
  "ot": 227,
  "\u2581c": 228,
  "S": 229,
  "\u2581g": 230,
  "\u043d\u0430": 231,
  "da": 232,
  "\u2581una": 233,
  "\u2581h": 234,
  "de": 235,
  "\u2581b": 236,
  "\u2581.": 237,
  "\u2581\u0628\u0647": 238,
  "la": 239,
  "\u2581kan": 240,
  "ed": 241,
  "\u306e": 242,
  "\u2581ni": 243,
  "\u2581'": 244,
  "\u2581r": 245,
  "\u2581har": 246,
  "C": 247,
  "\u2581su": 248,
  "(": 249,
  "ci": 250,
  "\u2581\u062f\u0631": 251,
  "\u00bb": 252,
  "\u2581con": 253,
  "wa": 254,
  "\u2581des": 255,
  "st": 256,
  "\u2581am": 257,
  "\u2581f": 258,
  "\u00ed": 259,
  "ina": 260,
  "\u2581ku": 261,
  "ala": 262,
  "\u2581ko": 263,
  "\u2581iti": 264,
  "\u25815": 265,
  "\u2581p": 266,
  "\u2581los": 267,
  "ny": 268,
  "\u0442": 269,
  "\u2581ta": 270,
  "le": 271,
  "\u2581ma": 272,
  "\u25814": 273,
  "\u2581ir": 274,
  "\u2581\u2018": 275,
  "\u00e1": 276,
  "\u2581um": 277,
  "..": 278,
  "x": 279,
  "are": 280,
  "\u2581lo": 281,
  "\u043b\u0430": 282,
  "\u2581por": 283,
  "se": 284,
  "\u2581as": 285,
  "\u2581und": 286,
  "\u043c": 287,
  "\u2581ny": 288,
  "\u2581\u043e\u0442": 289,
  "M": 290,
  "\u2581W": 291,
  "\u2581\u0456": 292,
  "ai": 293,
  "\u2581il": 294,
  "ay": 295,
  "\u2581\u0435": 296,
  "ig": 297,
  "\u2581J": 298,
  "B": 299,
  "li": 300,
  "\u258110": 301,
  "ov": 302,
  "ab": 303,
  "A": 304,
  "\u2581od": 305,
  "ah": 306,
  "ud": 307,
  "\u2581/": 308,
  "\u0442\u0438": 309,
  "\u00f3": 310,
  "\u2581wa": 311,
  "ag": 312,
  "\u043a\u0430": 313,
  "ha": 314,
  "\u2581Z": 315,
  "\u2581me": 316,
  "\u2581ve": 317,
  "ere": 318,
  "\u2581pa": 319,
  "ele": 320,
  "\u2581af": 321,
  "est": 322,
  "\u0442\u0430": 323,
  "\u2581so": 324,
  "ali": 325,
  "no": 326,
  "\u2581\u0430": 327,
  "P": 328,
  "D": 329,
  "ri": 330,
  "\u2581het": 331,
  "\u2581ha": 332,
  "\u2581po": 333,
  "\u043d\u0435": 334,
  "od": 335,
  "ant": 336,
  "ent": 337,
  "sa": 338,
  "2": 339,
  "\u0441": 340,
  "\u2581\u0434\u043e": 341,
  "\u2581\u03ba\u03b1\u03b9": 342,
  "\u2581La": 343,
  "\u00ad": 344,
  "\u2581\u0437": 345,
  "ung": 346,
  "ap": 347,
  "\u2581ki": 348,
  "\u2581em": 349,
  "ata": 350,
  "\u2581man": 351,
  "\u2581U": 352,
  "ic": 353,
  "\u043b\u0438": 354,
  "\u2581\u2014": 355,
  "\u2581\u06a9\u06d2": 356,
  "ya": 357,
  "K": 358,
  "\u2581nu": 359,
  "ine": 360,
  "\u2581par": 361,
  "\u2581j": 362,
  "ist": 363,
  "\u043d\u0438": 364,
  "uk": 365,
  "\u2581\u00e0": 366,
  "T": 367,
  "ou": 368,
  "ke": 369,
  "ini": 370,
  "\u2581\u0964": 371,
  "ale": 372,
  "\u2581yn": 373,
  "\u0445": 374,
  "\u2581?": 375,
  "\u25816": 376,
  "si": 377,
  "\u2581att": 378,
  "q": 379,
  "\u043b": 380,
  "\u2581\u00e9": 381,
  "\u2581\u0645\u0646": 382,
  "N": 383,
  "iz": 384,
  "ma": 385,
  "\u2581De": 386,
  "\u043a": 387,
  "\u2581var": 388,
  "ado": 389,
  "\u2581az": 390,
  "\u2581Ang": 391,
  "ite": 392,
  "\u2581os": 393,
  "\u2581va": 394,
  "\u2581pas": 395,
  "\u3092": 396,
  "ers": 397,
  "ari": 398,
  "ens": 399,
  "\u2581een": 400,
  "\u2581nie": 401,
  "L": 402,
  "\u043d\u043e": 403,
  "ate": 404,
  "\u2581\u0627\u0632": 405,
  "\u0432\u0430": 406,
  "ita": 407,
  "\u201c": 408,
  "ara": 409,
  "ati": 410,
  "\u2581bir": 411,
  "lar": 412,
  "\u304c": 413,
  "\u0647": 414,
  "\u0646": 415,
  "\u064e": 416,
  "ce": 417,
  "eg": 418,
  "\u25812018": 419,
  "\u2581\u00e9s": 420,
  "ile": 421,
  "\u2581men": 422,
  "\u2581\u0641\u064a": 423,
  "\u044f": 424,
  "3": 425,
  "\u2581ak": 426,
  "\u2018": 427,
  "to": 428,
  "va": 429,
  "\u2581\u062c\u064a": 430,
  "ko": 431,
  "\u2581of": 432,
  "\u2581iz": 433,
  "H": 434,
  "6": 435,
  "ter": 436,
  "ki": 437,
  "za": 438,
  "ro": 439,
  "com": 440,
  "\u2581re": 441,
  "\u25817": 442,
  "\u2581\u06a9\u06cc": 443,
  "\u2581met": 444,
  "\u2581las": 445,
  "\u2581com": 446,
  "ani": 447,
  "\u043c\u0430": 448,
  "\u0442\u0435": 449,
  "\u2581\u0432\u043e": 450,
  "1": 451,
  "di": 452,
  "ene": 453,
  "\u0103": 454,
  "\u25818": 455,
  "\u2581\u0915\u0947": 456,
  "ku": 457,
  "\u2581ay": 458,
  "\u2581mai": 459,
  "\u0434": 460,
  "io": 461,
  "\u2581En": 462,
  "ten": 463,
  "\u2581din": 464,
  "4": 465,
  "\u2581ver": 466,
  "ga": 467,
  "R": 468,
  "ela": 469,
  "ve": 470,
  "og": 471,
  "\u2581n\u00eb": 472,
  "\u2581vi": 473,
  "\u306b": 474,
  "I": 475,
  "ama": 476,
  "\u00eb": 477,
  "\u2581cu": 478,
  "E": 479,
  "G": 480,
  "ac": 481,
  "op": 482,
  "\u0648": 483,
  "era": 484,
  "ze": 485,
  "\u0432": 486,
  "me": 487,
  "ca": 488,
  "\u0435": 489,
  "\u2581Y": 490,
  "ho": 491,
  "end": 492,
  "ib": 493,
  "]": 494,
  "\u0105": 495,
  "\u2581\u00e1": 496,
  "\u0161": 497,
  "\u2581\u00bb": 498,
  "O": 499,
  "\u0434\u0430": 500,
  "and": 501,
  "\u2581bo": 502,
  "\u2581a\u00f0": 503,
  "\u2581mi": 504,
  "\u2581ba": 505,
  "F": 506,
  "\u2581ke": 507,
  "\u2581\u043e": 508,
  "asi": 509,
  "\u2581\u043f\u0440\u0438": 510,
  "ba": 511,
  "\u092e\u093e": 512,
  "\u0440\u0430": 513,
  "\u2581ket": 514,
  "\u043c\u0438": 515,
  "\u2581pe": 516,
  "\u064a": 517,
  "\u2581che": 518,
  "tu": 519,
  "\uc744": 520,
  "\u2581x": 521,
  "\uc774": 522,
  "\u2581\u0458\u0435": 523,
  "ez": 524,
  "\u2581\u0645\u06cc\u06ba": 525,
  "\uc758": 526,
  "V": 527,
  "\u2581go": 528,
  "\u2581mga": 529,
  "\u0915\u094b": 530,
  "\u043f": 531,
  "\u2581\u0410": 532,
  "\u0442\u043e": 533,
  "\u2581qu": 534,
  "\u258120": 535,
  "\u2581ug": 536,
  "\u00fa": 537,
  "ili": 538,
  "\u2581\u0423": 539,
  "ika": 540,
  "\u2581\u0438\u0437": 541,
  "\u2581[": 542,
  "\u2581ag": 543,
  "\u0448": 544,
  "\u306f": 545,
  "\u0440": 546,
  "ato": 547,
  "iti": 548,
  "\u2581\u00ed": 549,
  "\u0645": 550,
  "U": 551,
  "\u2581An": 552,
  "mi": 553,
  "\u043b\u0435": 554,
  "\u2581\u10d3\u10d0": 555,
  "\u2581El": 556,
  "\u2581f\u00f6r": 557,
  "\u5728": 558,
  "\u00e8": 559,
  "he": 560,
  "\u2581st": 561,
  "\u0436": 562,
  "\u2581\u0442\u0430": 563,
  "ong": 564,
  "\u2581ch": 565,
  "\u00e4": 566,
  "ane": 567,
  "ge": 568,
  "\u2581im": 569,
  "\u2581\u0645\u06cc": 570,
  "eng": 571,
  "\u25819": 572,
  "\u2581\u0441\u0430": 573,
  "\u2581\u067e\u0647": 574,
  "\u258112": 575,
  "ica": 576,
  "\u2581\u0631\u0627": 577,
  "sk": 578,
  "\u2581\u00een": 579,
  "\u2581\u00e4r": 580,
  "\u2581\u043e\u0434": 581,
  "\u2581bu": 582,
  "ida": 583,
  "\u2581#": 584,
  "\u043e": 585,
  "\u2581tak": 586,
  "\u2581\u0567": 587,
  "J": 588,
  "\u0433": 589,
  "W": 590,
  "\u017e": 591,
  "\u0101": 592,
  "\u2581In": 593,
  "\u258118": 594,
  "aka": 595,
  "\u2581zu": 596,
  "\u2581tu": 597,
  "we": 598,
  "\u2581tr": 599,
  "ena": 600,
  "\u2581nan": 601,
  "\u2581dat": 602,
  "\u2581Na": 603,
  "\u258115": 604,
  "\u043a\u0438": 605,
  "\u0627\u062a": 606,
  "\u2581ob": 607,
  "av": 608,
  "\u2581\u03c4\u03bf": 609,
  "\u0627": 610,
  "ano": 611,
  "hi": 612,
  "\u00e9s": 613,
  "\u2581\u03c4\u03bf\u03c5": 614,
  "\u0443": 615,
  "\u0627\u0646": 616,
  "\u2581\u06a9\u0647": 617,
  "ju": 618,
  "\u2581mu": 619,
  "kan": 620,
  "\u0633": 621,
  "7": 622,
  "\u0439": 623,
  "\u2581das": 624,
  "up": 625,
  "\u2581\u00e5": 626,
  "iv": 627,
  "\u2581ini": 628,
  "ub": 629,
  "\u2581son": 630,
  "una": 631,
  "\u2581\u0412": 632,
  "\u2581ist": 633,
  "\u2581sem": 634,
  "ista": 635,
  "\u2581\u03bd\u03b1": 636,
  "\u2581ab": 637,
  "\u2581ra": 638,
  "\u043d\u044b": 639,
  "ob": 640,
  "eni": 641,
  "\u2581como": 642,
  "az": 643,
  "zi": 644,
  "\u0433\u0430": 645,
  "\u2581ca": 646,
  "ila": 647,
  "\u0173": 648,
  "isi": 649,
  "\u044e": 650,
  "\u0442\u044b": 651,
  "ona": 652,
  "eb": 653,
  "\u2581sp": 654,
  "\u2581\u0441\u043e": 655,
  "ning": 656,
  "\u2581ser": 657,
  "\u4e86": 658,
  "\u2581ho": 659,
  "\u2581ce": 660,
  "\u2581yo": 661,
  "\u043b\u043e": 662,
  "\u2581sk": 663,
  "\u2581\u0628\u0627": 664,
  "\u0440\u0438": 665,
  "_": 666,
  "\u2581be": 667,
  "\uc5d0": 668,
  "\u2581non": 669,
  "\u2581ber": 670,
  "ast": 671,
  "\u2581si\u0119": 672,
  "ver": 673,
  "\u0644": 674,
  "\u2581eta": 675,
  "\u2581Al": 676,
  "8": 677,
  "\u2581dhe": 678,
  "5": 679,
  "\u064a\u0646": 680,
  "be": 681,
  "ert": 682,
  "\u2581\u0421": 683,
  "\u043d": 684,
  "\u2581!": 685,
  "\u0650": 686,
  "\u2581\u0627\u0633\u062a": 687,
  "\u2581\u0627\u0648": 688,
  "isa": 689,
  "\u2581dengan": 690,
  "\u2581ou": 691,
  "ade": 692,
  "\u064a\u0629": 693,
  "\u2581mar": 694,
  "\u043c\u0435": 695,
  "\u2581untuk": 696,
  "\u2581mo": 697,
  "\u2581\u092e\u0947\u0902": 698,
  "\u00e1n": 699,
  "\u0932\u0947": 700,
  "\u0437": 701,
  "\u2581\u043f\u0430": 702,
  "eri": 703,
  "lo": 704,
  "\u2581ass": 705,
  "\u2581ut": 706,
  "ci\u00f3n": 707,
  "\u043d\u0456": 708,
  "ira": 709,
  "\u2581ken": 710,
  "\u2581ad": 711,
  "ih": 712,
  "\u2581by": 713,
  "\u2581v\u00e0": 714,
  "\u043a\u0443": 715,
  "\u0647\u0627": 716,
  "\u056b": 717,
  "9": 718,
  "\u2581pre": 719,
  "ji": 720,
  "\u2581ei": 721,
  "\u2581ap": 722,
  "\u06c1": 723,
  "\u0131": 724,
  "\u010d": 725,
  "\u2581mat": 726,
  "\u062a": 727,
  "ug": 728,
  "\u2581agus": 729,
  "\u06cc": 730,
  "\u2581\u0434\u043b\u044f": 731,
  "ami": 732,
  "\u2581s\u00e5": 733,
  "\u2581\u043f\u0440\u043e": 734,
  "\u0442\u044c": 735,
  "\u258111": 736,
  "vi": 737,
  "\u2581mit": 738,
  "\u2581oo": 739,
  "\u0648\u0646": 740,
  "ion": 741,
  "\u2581\u0447\u0442\u043e": 742,
  "eli": 743,
  "\u0634": 744,
  "\u2581c\u00f3": 745,
  "inn": 746,
  "Y": 747,
  "ell": 748,
  "ans": 749,
  "aj": 750,
  "ye": 751,
  "ua": 752,
  "\u2581dos": 753,
  "\u0440\u0435": 754,
  "\u2581p\u00ebr": 755,
  "ando": 756,
  "ien": 757,
  "\u2581No": 758,
  "\u2581Ar": 759,
  "\u0259": 760,
  "\u00e0": 761,
  "\u1295": 762,
  "\u258130": 763,
  "\u2581\u067e\u0631": 764,
  "\u2581X": 765,
  "\u2581au": 766,
  "\u2581\u03c4\u03b7\u03c2": 767,
  "\u2581\u0627\u06cc\u0646": 768,
  "\u2581est": 769,
  "ru": 770,
  "\u2581\u06fe": 771,
  "ip": 772,
  "ete": 773,
  "\u2581ze": 774,
  "\u662f": 775,
  "\u2581\u0939\u0948": 776,
  "\u2581\u0441\u0443": 777,
  "\u2581fan": 778,
  "ust": 779,
  "ec": 780,
  "\u2581pr": 781,
  "\u2581mas": 782,
  "\u2581\u0915\u0940": 783,
  "\u2581dagiti": 784,
  "ise": 785,
  "\u548c": 786,
  "\u0628": 787,
  "ken": 788,
  "\u25811.": 789,
  "\u3067": 790,
  "\u2581ter": 791,
  "ys": 792,
  "\u2581dit": 793,
  "\u043a\u043e": 794,
  "ler": 795,
  "\u0119": 796,
  "\u2581c\u1ee7a": 797,
  "\u2581dem": 798,
  "int": 799,
  "ima": 800,
  "\u0434\u0438": 801,
  "\u2581\u0627\u0648\u0631": 802,
  "\u2581este": 803,
  "\u25812017": 804,
  "\u2581\u062a\u0647": 805,
  "\u0629": 806,
  "\u2581\u062c\u0648": 807,
  "\u2581kas": 808,
  "man": 809,
  "\u0434\u0435": 810,
  "\u2581ga": 811,
  "\u2581nem": 812,
  "\u2581fi": 813,
  "\u0915\u093e": 814,
  "yn": 815,
  "ier": 816,
  "ats": 817,
  "co": 818,
  "\u2581\u0432\u0438": 819,
  "\u2581\u03c4\u03b7\u03bd": 820,
  "\u043b\u0456": 821,
  "\u2581\u045e": 822,
  "\u00e7": 823,
  "ins": 824,
  "\u2581ikke": 825,
  "ura": 826,
  "\u201d,": 827,
  "\u2581Ch": 828,
  "\u2581\u0418": 829,
  "jo": 830,
  "\u2581\u06a9\u0627": 831,
  "\u0434\u044b": 832,
  "\u2581till": 833,
  "lu": 834,
  "\u00f0": 835,
  "\u2581\u0633\u06d2": 836,
  "\u0643": 837,
  "\u043d\u0443": 838,
  "\u2581\u041d\u0430": 839,
  "\u2581l\u00e0": 840,
  "ola": 841,
  "\u0442\u0443": 842,
  "\u4eba": 843,
  "\u2581\u041e": 844,
  "ente": 845,
  "\u2581\u00e8": 846,
  "\u25810": 847,
  "\u2581Det": 848,
  "\u2581bi": 849,
  "\u0441\u0430": 850,
  "\u2581futhi": 851,
  "\u2581\u06fd": 852,
  "\u2581sin": 853,
  "\u2581uma": 854,
  "asa": 855,
  "eta": 856,
  "\u2581v\u0259": 857,
  "\u0437\u0430": 858,
  "\u2581\u03bc\u03b5": 859,
  "\".": 860,
  "\u258116": 861,
  "\u2581it": 862,
  "\u258114": 863,
  "\u2581Le": 864,
  "\u121d": 865,
  "iga": 866,
  "\u2581meg": 867,
  "\u0440\u043e": 868,
  "uri": 869,
  "\u0432\u0438": 870,
  "che": 871,
  "\u2581pod": 872,
  "\u2581Se": 873,
  "\u064f": 874,
  "\u2581\u0432\u044b": 875,
  "\u2581min": 876,
  "ula": 877,
  "\u00e1s": 878,
  "\u0430": 879,
  "art": 880,
  "\",": 881,
  "pa": 882,
  "oc": 883,
  "....": 884,
  "\u015f": 885,
  "\u258113": 886,
  "\u2581li": 887,
  "ost": 888,
  "atu": 889,
  "yo": 890,
  "\u2581\u0442\u043e": 891,
  "ij": 892,
  "\u2581care": 893,
  "ako": 894,
  "\u0447": 895,
  "\u0578\u0582\u0574": 896,
  "\u2581pro": 897,
  "\u2581ac": 898,
  "\u0107": 899,
  "\u0431": 900,
  "res": 901,
  "ito": 902,
  "\u2581wat": 903,
  "ts": 904,
  "\u0432\u0435": 905,
  "\u2581ez": 906,
  "pe": 907,
  "\u2581\u043d\u043e": 908,
  "\u2581\u044f": 909,
  "\u258117": 910,
  "\u043b\u044c": 911,
  "ino": 912,
  "\u2581\u0647\u0627\u06cc": 913,
  "\u2581\u0633": 914,
  "\u2581sy": 915,
  "all": 916,
  "\u2581mal": 917,
  "ker": 918,
  "\u2581pour": 919,
  "\u0142": 920,
  "\u2581\u0627\u0646": 921,
  "\u043c\u043e": 922,
  "esi": 923,
  "Z": 924,
  "\u0e17\u0e35\u0e48": 925,
  "\u00f3w": 926,
  "ky": 927,
  "\u2581\u05e9\u05dc": 928,
  "\u2581\u0915\u094b": 929,
  "ora": 930,
  "du": 931,
  "au": 932,
  "\u0915": 933,
  "\u2581co": 934,
  "\u0441\u0435": 935,
  "ind": 936,
  "\u2581voor": 937,
  "\u062f": 938,
  "\u10d0": 939,
  "\u4e0d": 940,
  "\u05d4": 941,
  "aba": 942,
  "\u0639": 943,
  "\u0924": 944,
  "\u2581Ma": 945,
  "ish": 946,
  "\u2581vun": 947,
  "aren": 948,
  "\uac00": 949,
  "\u2581jo": 950,
  "\u2581br": 951,
  "\u0627\u0631": 952,
  "ill": 953,
  "\u2581sur": 954,
  "ice": 955,
  "oni": 956,
  "\u0431\u0430": 957,
  "elt": 958,
  "\u00fd": 959,
  "\u2581Mar": 960,
  "\u0938": 961,
  "\u25812.": 962,
  "ation": 963,
  "ede": 964,
  "\u2581\u06a9\u0648": 965,
  "\u0631": 966,
  "\u05df": 967,
  "\u2581fra": 968,
  "\u05d1": 969,
  "\u0928": 970,
  "\u4e00": 971,
  "\u0440\u0443": 972,
  "\u2581mer": 973,
  "ide": 974,
  "jen": 975,
  "\u2581\u041f\u043e": 976,
  "\u2581aan": 977,
  "\u2581\u0915\u093e": 978,
  "\u2581von": 979,
  "\u2581m\u00e1s": 980,
  "\u0438": 981,
  "fa": 982,
  "\u0928\u0947": 983,
  "lik": 984,
  "\u2581\u0628": 985,
  "\u258125": 986,
  "\u062c": 987,
  "\u2581ale": 988,
  "\u2581\u05d3\u05d9": 989,
  "\u201d.": 990,
  "\u258124": 991,
  "\u2581St": 992,
  "\u043a\u0435": 993,
  "\u05d3": 994,
  "\u2581ek": 995,
  "\u2581\u0a9b\u0ac7": 996,
  "vo": 997,
  "\u2581*": 998,
  "ann": 999,
  "ci\u00f3": 1000,
  "\u2581us": 1001,
  "\u2581\u062a": 1002,
  "\u043c\u0443": 1003,
  "\u0568": 1004,
  "://": 1005,
  "pl": 1006,
  "n\u00e9": 1007,
  "\u2581kar": 1008,
  "tr": 1009,
  "den": 1010,
  "\u2581&": 1011,
  "\u045e": 1012,
  "\u2581gr": 1013,
  "ados": 1014,
  "\u2581\u0441\u0438": 1015,
  "\u0db8": 1016,
  "der": 1017,
  "\u2581ge": 1018,
  "\u2581and": 1019,
  "\u2581net": 1020,
  "\u0117": 1021,
  "\u3068": 1022,
  "\u0932\u093e": 1023,
  "alo": 1024,
  "\u2581amin": 1025,
  "\u0642": 1026,
  "\u2581pag": 1027,
  "\uc740": 1028,
  "\ub294": 1029,
  "\u2581her": 1030,
  "\u2581jeg": 1031,
  "\u2581cho": 1032,
  "\u2581pentru": 1033,
  "\u2581\u0639\u0644\u0649": 1034,
  "any": 1035,
  "aya": 1036,
  "ende": 1037,
  "\u2581\u03b3\u03b9\u03b1": 1038,
  "\u00f2": 1039,
  "\u2581dalam": 1040,
  "\u0131n": 1041,
  "\u2581sam": 1042,
  "ng": 1043,
  "\u2581\u0938\u0947": 1044,
  "\u0432\u043e": 1045,
  "\u2581\u0644": 1046,
  "ore": 1047,
  "\u2581ukuthi": 1048,
  "\u2581bar": 1049,
  "\u2581\u0161": 1050,
  "\u2581dar": 1051,
  "\u2581\u04bb\u04d9\u043c": 1052,
  "\u2581ro": 1053,
  "\u2581als": 1054,
  "\u2581ol": 1055,
  "uh": 1056,
  "anda": 1057,
  "\u00f6": 1058,
  "\u2581amb": 1059,
  "ett": 1060,
  "ach": 1061,
  "ase": 1062,
  "\u2581ik": 1063,
  "imo": 1064,
  "\u05e7": 1065,
  "\u00e7\u00e3o": 1066,
  "\u5e74": 1067,
  "\u2581ein": 1068,
  "ard": 1069,
  "cht": 1070,
  "iko": 1071,
  "n\u00ed": 1072,
  "\u2581\u0627\u0633": 1073,
  "\u2581\u0645": 1074,
  "\u00fc": 1075,
  "\u2581Vi": 1076,
  "\u2581eng": 1077,
  "\u0632": 1078,
  "\u2581ah": 1079,
  "\u2581Per": 1080,
  "\u0441\u0442\u0430": 1081,
  "\u2581nas": 1082,
  "\u6709": 1083,
  "AN": 1084,
  "ante": 1085,
  "\u2581eller": 1086,
  "iri": 1087,
  "\u2581kwa": 1088,
  "\u0447\u0438": 1089,
  "\u2581\u0417\u0430": 1090,
  "\u2581q": 1091,
  "\u2581uz": 1092,
  "\u0627\u0644": 1093,
  "\u2581\u060c": 1094,
  "\u2581th": 1095,
  "\u2581\u05d0\u05ea": 1096,
  "mo": 1097,
  "\u2581han": 1098,
  "adi": 1099,
  "ran": 1100,
  "one": 1101,
  "\u2581fir": 1102,
  "ori": 1103,
  "\u2581Die": 1104,
  "\u2581\u0930": 1105,
  "iy": 1106,
  "nya": 1107,
  "\u2581\u03c0\u03bf\u03c5": 1108,
  "\u2581\u017ee": 1109,
  "\u0932": 1110,
  "qu": 1111,
  "\u0434\u0443": 1112,
  "inen": 1113,
  "\u2581sal": 1114,
  "ben": 1115,
  "ire": 1116,
  "aga": 1117,
  "\u2581\u0438\u043b\u0438": 1118,
  "ep": 1119,
  "\u2581over": 1120,
  "uma": 1121,
  "\u4e0a": 1122,
  "imi": 1123,
  "\u092e": 1124,
  "\u05dc": 1125,
  "\u2581dia": 1126,
  "ks": 1127,
  "\u2581fa": 1128,
  "\u06a9": 1129,
  "\u2581kom": 1130,
  "men": 1131,
  "\u0433\u043e": 1132,
  "\u2581\u03b1\u03c0\u03cc": 1133,
  "fi": 1134,
  "\u0441\u0442": 1135,
  "\u2581pri": 1136,
  "\u2581ye": 1137,
  "\u2581\u06c1\u06d2": 1138,
  "\u2581sh": 1139,
  "\u5927": 1140,
  "\u05e1": 1141,
  "\u0440\u044b": 1142,
  "\u2581dari": 1143,
  "\u2581\u0433\u043e": 1144,
  "\u2581ing": 1145,
  "\u2581Un": 1146,
  "ons": 1147,
  "\u2581Sa": 1148,
  "isk": 1149,
  "elo": 1150,
  "\u0641": 1151,
  "\u2581nos": 1152,
  "\u00e1t": 1153,
  "\u2581vir": 1154,
  "\u2581ich": 1155,
  "het": 1156,
  "\u2581Am": 1157,
  "\u2581auf": 1158,
  "\u2581pl": 1159,
  "ban": 1160,
  "cion": 1161,
  "\u2581bulan": 1162,
  "\u10d8\u10e1": 1163,
  "\u043d\u0438\u0439": 1164,
  "\u0447\u0430": 1165,
  "\u2581mag": 1166,
  "if": 1167,
  "\u0434\u043e": 1168,
  "\u0441\u044b": 1169,
  "\u0493\u0430": 1170,
  "\u2581\u043a": 1171,
  "\u1293": 1172,
  "ame": 1173,
  "\u0441\u0442\u0438": 1174,
  "ului": 1175,
  ".\u201d": 1176,
  "\u0448\u0435": 1177,
  "ff": 1178,
  "\u2581\u06a9\u064a": 1179,
  "gi": 1180,
  "\u2581\u0440\u0430\u0437": 1181,
  "elle": 1182,
  "\u062d": 1183,
  "\u05d2": 1184,
  "\u2581kun": 1185,
  "\u2581f\u00fcr": 1186,
  "\u043b\u044b": 1187,
  "\u0446": 1188,
  "use": 1189,
  "\u2581\u12e8": 1190,
  "\u2581\u0646": 1191,
  "\u25812016": 1192,
  "\u2581qui": 1193,
  "\u2581nag": 1194,
  "pr": 1195,
  "\u2581\u0448\u0442\u043e": 1196,
  "\u2581the": 1197,
  "\u2581ur": 1198,
  "\u00ebn": 1199,
  "\u2581val": 1200,
  "ym": 1201,
  "\u05d5": 1202,
  "\u4e2d": 1203,
  "\u2581Si": 1204,
  ".,": 1205,
  "\u2581\u0627\u0644\u0645": 1206,
  "\u2581ao": 1207,
  "ige": 1208,
  "X": 1209,
  "\u2581alle": 1210,
  "\ud55c": 1211,
  "han": 1212,
  "hu": 1213,
  "oj": 1214,
  "per": 1215,
  "\u2581)": 1216,
  "cha": 1217,
  "\u2581\u043c\u0430": 1218,
  "\u2581hogy": 1219,
  "\u2581mais": 1220,
  "\u2581|": 1221,
  "\u05de": 1222,
  "\u2581air": 1223,
  "\u2581all": 1224,
  "\u00f3n": 1225,
  "\u2581nel": 1226,
  "\u0421": 1227,
  "\u2581kh\u00f4ng": 1228,
  "mer": 1229,
  "\u2581ako": 1230,
  "eti": 1231,
  "\u05e2": 1232,
  "\u0433\u0435": 1233,
  "\u2581Er": 1234,
  "gen": 1235,
  "ese": 1236,
  "ii": 1237,
  "aran": 1238,
  "\u05ea": 1239,
  "bi": 1240,
  "\u2581iyo": 1241,
  "\u06d0": 1242,
  "\u2581sus": 1243,
  "bo": 1244,
  "\u2581100": 1245,
  "\u2581or": 1246,
  "\u0448\u0430": 1247,
  "\u0437\u0438": 1248,
  "ow": 1249,
  "\u2581c\u00e1c": 1250,
  "oli": 1251,
  "\u2581\u06a9\u06d0": 1252,
  "\u258150": 1253,
  "\u2581\u05de": 1254,
  "\u0458": 1255,
  "\u0441\u0438": 1256,
  "cia": 1257,
  "\u258121": 1258,
  "\u2581meng": 1259,
  "\u25813.": 1260,
  "\ub97c": 1261,
  "adh": 1262,
  "\u2581jag": 1263,
  "\u043d\u044b\u0445": 1264,
  "\u2581km": 1265,
  "\u00ebs": 1266,
  "\u05e9": 1267,
  "\u00e9n": 1268,
  "\u2581une": 1269,
  "\u2581tidak": 1270,
  "%": 1271,
  "\u2581\u201d": 1272,
  "\u65e5": 1273,
  "\u2581\u03b7": 1274,
  "\u043d\u0438\u0442\u0435": 1275,
  "dan": 1276,
  "\u2581tur": 1277,
  "yt": 1278,
  "\u2581kr": 1279,
  "uje": 1280,
  "\u2581itu": 1281,
  "ger": 1282,
  "\u2581\u0622\u0647\u064a": 1283,
  "zen": 1284,
  "\u2581\u015fi": 1285,
  "uu": 1286,
  "\u05d0": 1287,
  "\u2581aj": 1288,
  "\u6211": 1289,
  "\u00e1l": 1290,
  "\u2581bet": 1291,
  "\u0165": 1292,
  "\u05d9\u05dd": 1293,
  "\u2581pol": 1294,
  "\u2581q\u00eb": 1295,
  "\u064b": 1296,
  "\u0646\u062f": 1297,
  "\u2581Sent": 1298,
  "\u2581kal": 1299,
  "\u043d\u043e\u0433\u043e": 1300,
  "\u0648\u0631": 1301,
  "\u0431\u0438": 1302,
  "\u0ca6": 1303,
  "\u2581\u0111\u01b0\u1ee3c": 1304,
  "uz": 1305,
  "\u2581aus": 1306,
  "\u2581he": 1307,
  "\u0649": 1308,
  "\u2581Pr": 1309,
  "\u2581s\u0103": 1310,
  "\u0648\u06ba": 1311,
  "\u043b\u0443": 1312,
  "pi": 1313,
  "\u2581kad": 1314,
  "\u2581Q": 1315,
  "olo": 1316,
  "que": 1317,
  "\u2581vo": 1318,
  "\u2581war": 1319,
  "th": 1320,
  "=": 1321,
  "\u043c\u0456": 1322,
  "\u043d\u0438\u044f": 1323,
  "\u2581\u064a": 1324,
  "\u05d8": 1325,
  "ry": 1326,
  "\u00eda": 1327,
  "\u0458\u0435": 1328,
  "\u2581\u043f\u0440\u0435": 1329,
  "\u2581ind": 1330,
  "\u043b\u044f": 1331,
  "\u2581\u0627": 1332,
  "\u0dba": 1333,
  "ole": 1334,
  "\u2581Il": 1335,
  "\u2581lan": 1336,
  "\u011b": 1337,
  "ime": 1338,
  "\u2581Re": 1339,
  "\u2581Bu": 1340,
  "\u258119": 1341,
  "\u1275": 1342,
  "\u2581\u05d0": 1343,
  "\u06cc\u0646": 1344,
  "\u05d5\u05ea": 1345,
  "\u0441\u043a\u0438": 1346,
  "\u0576": 1347,
  "zy": 1348,
  "ega": 1349,
  "\u0445\u0430": 1350,
  "lan": 1351,
  "\u258122": 1352,
  "10": 1353,
  "adas": 1354,
  "amo": 1355,
  "\u2581kon": 1356,
  "\uace0": 1357,
  "nu": 1358,
  "eren": 1359,
  "\u2581\u0641": 1360,
  "\u2581\u0646\u06d2": 1361,
  "\u2581(1)": 1362,
  "alt": 1363,
  "its": 1364,
  "00": 1365,
  "\u2581sz": 1366,
  "hl": 1367,
  "\u2581tra": 1368,
  "\u300d": 1369,
  "org": 1370,
  "\u0447\u0435": 1371,
  "kt": 1372,
  "usi": 1373,
  "\u06d2": 1374,
  "nie": 1375,
  "\u120d": 1376,
  "\u2581nj\u00eb": 1377,
  "\u00e1r": 1378,
  "\u043d\u0430\u0442\u0430": 1379,
  "\u2581Ti": 1380,
  "\u2581dis": 1381,
  "\u0631\u064a": 1382,
  "\u0928\u093e": 1383,
  "\ub3c4": 1384,
  "\u25812015": 1385,
  "br": 1386,
  "\u2581tot": 1387,
  "\u043f\u0430": 1388,
  "ond": 1389,
  "\u2581+": 1390,
  "\u2581\u03bf": 1391,
  "ido": 1392,
  "+": 1393,
  "\u2581dans": 1394,
  "\u056b\u0576": 1395,
  "\u0561\u056f\u0561\u0576": 1396,
  "\u0441\u043a\u0430": 1397,
  "\u2581\u043a\u0430": 1398,
  "\u0446\u0438": 1399,
  "\u2581akan": 1400,
  "\u2581\u0565\u0582": 1401,
  "aki": 1402,
  "\u0565\u056c": 1403,
  "ern": 1404,
  "\u05d7": 1405,
  "\ub85c": 1406,
  "ont": 1407,
  "\u10e1": 1408,
  "ess": 1409,
  "\u2581Sie": 1410,
  "do": 1411,
  "\u0458\u0430": 1412,
  "ER": 1413,
  "\u2581tan": 1414,
  "\u2581\u00a9": 1415,
  "\u2581ee": 1416,
  "\u043f\u043e": 1417,
  "po": 1418,
  "\u2581ok": 1419,
  "ico": 1420,
  "ev": 1421,
  "\u2581\u0646\u0647": 1422,
  "ven": 1423,
  "ft": 1424,
  "\u1235": 1425,
  "\u258123": 1426,
  "AR": 1427,
  "\u2581\u0219i": 1428,
  "\u2581kl": 1429,
  "\u2581\u05e9": 1430,
  "\u2581kadagiti": 1431,
  "\u2581\u05e2\u05dc": 1432,
  "ande": 1433,
  "\u043a\u0456": 1434,
  "els": 1435,
  "\u0e01\u0e32\u0e23": 1436,
  "enn": 1437,
  "\u0da7": 1438,
  "\u0924\u093e": 1439,
  "\u2581\u1021": 1440,
  "\u2581jest": 1441,
  "\u09c7\u09b0": 1442,
  "\u2581\u03c4\u03b1": 1443,
  "so": 1444,
  "\u0b30": 1445,
  "\u2581nicht": 1446,
  "\u2581sig": 1447,
  "[": 1448,
  "\u2581mak": 1449,
  "bu": 1450,
  "\u2581Tr": 1451,
  "\uc9c0": 1452,
  "une": 1453,
  "\u2581fr": 1454,
  "\u0b30\u0b47": 1455,
  "af": 1456,
  "\u2581\u0623": 1457,
  "\uae30": 1458,
  "ber": 1459,
  "\u2581trong": 1460,
  "\u2581pada": 1461,
  "\u043d\u0438\u0445": 1462,
  "ue": 1463,
  "\u0434\u0456": 1464,
  "ayo": 1465,
  "\u2581hat": 1466,
  "\u2581\u0433": 1467,
  "ske": 1468,
  "\u122d": 1469,
  "\u2581m\u1ed9t": 1470,
  "\u2581pat": 1471,
  "mu": 1472,
  "\u05e8": 1473,
  "\u3082": 1474,
  "\u2581\u1260": 1475,
  "\u0151": 1476,
  "\u2581\u043a\u043e": 1477,
  "\u05e4": 1478,
  "ille": 1479,
  "\u2581\uc218": 1480,
  "\u2581\u043a\u0430\u043a": 1481,
  "\u2581\u091b": 1482,
  "\u2581nak": 1483,
  "\u2581To": 1484,
  "\u2581Di": 1485,
  "ras": 1486,
  "\u0410": 1487,
  "ings": 1488,
  "ero": 1489,
  "val": 1490,
  "\u2581\u041a": 1491,
  "\u2581\u0442\u0435": 1492,
  "\u2581ud": 1493,
  "\u2581Ab": 1494,
  "lar\u0131": 1495,
  "\u2581\u0623\u0646": 1496,
  "\u2581kat": 1497,
  "30": 1498,
  "\u05d6": 1499,
  "\u2581ed": 1500,
  "\u2581kw": 1501,
  "\u2581Sh": 1502,
  "ament": 1503,
  "\u2581\u043f\u043e\u0434": 1504,
  "\u2581della": 1505,
  "amb": 1506,
  "\u2581vil": 1507,
  "fr": 1508,
  "\ub9ac": 1509,
  "kin": 1510,
  "cu": 1511,
  "rat": 1512,
  "\u2581was": 1513,
  "\u306a": 1514,
  "yd": 1515,
  "ck": 1516,
  "\u0aa8\u0abe": 1517,
  "\u2581dh": 1518,
  "\u0454": 1519,
  "ink": 1520,
  "EN": 1521,
  "\u2581\u0644\u0647": 1522,
  "\u0456": 1523,
  "\u2581mis": 1524,
  "\u2581Den": 1525,
  "\u10dd": 1526,
  "\u2581kur": 1527,
  "\u016f": 1528,
  "\u2581\u0639": 1529,
  "\u2581\u0a26\u0a47": 1530,
  "\u2581sobre": 1531,
  "\u2581\u0627\u0644": 1532,
  "\u2581kay": 1533,
  "ova": 1534,
  "und": 1535,
  "\u2581ul": 1536,
  "sh": 1537,
  "\u2581pi": 1538,
  "\u2581inte": 1539,
  "akan": 1540,
  "\u2581sen": 1541,
  "\u0441\u0443": 1542,
  "ike": 1543,
  "\u2581\u0914\u0930": 1544,
  "\u0435\u0442": 1545,
  "\u00f1": 1546,
  "\u2581sich": 1547,
  "\u2581nam": 1548,
  "\u2581\u0431\u0430": 1549,
  "\u2581\u0414": 1550,
  "wi": 1551,
  "\u2581egy": 1552,
  "\u2581lu": 1553,
  "\u2581As": 1554,
  "\u2581\u043c\u043e": 1555,
  "\u1021": 1556,
  "\u2581Es": 1557,
  "Q": 1558,
  "\u2581ci": 1559,
  "\u2581v\u1edbi": 1560,
  "\u0d02": 1561,
  "nik": 1562,
  "mas": 1563,
  "\u0935": 1564,
  "\u2581d\u00e9i": 1565,
  "\u2581bez": 1566,
  "\u2581Sp": 1567,
  "\u0446\u0435": 1568,
  "\u0646\u0627": 1569,
  "\u2581Men": 1570,
  "ass": 1571,
  "zo": 1572,
  "\u2581\u06a9\u06c1": 1573,
  "\u0432\u0456": 1574,
  "\u2581dr": 1575,
  "ema": 1576,
  "\u2581\u0647\u0627": 1577,
  "\u2581Par": 1578,
  "\u062e": 1579,
  "\u2581lang": 1580,
  "\u091a": 1581,
  "kl": 1582,
  "ste": 1583,
  "\u25814.": 1584,
  "go": 1585,
  "tor": 1586,
  "\u00edm": 1587,
  "\u0e02\u0e2d\u0e07": 1588,
  "\u0631\u0627": 1589,
  "wan": 1590,
  "tik": 1591,
  "\u2581\u05dc\u05d0": 1592,
  "\u0436\u0430": 1593,
  "\u12cd": 1594,
  "\u092a": 1595,
  "iss": 1596,
  "\u2581\u0431\u0438": 1597,
  "ets": 1598,
  "\u2581\u0415": 1599,
  "\u2581\u05d1": 1600,
  "\u2581pot": 1601,
  "\u2581bisa": 1602,
  "wo": 1603,
  "\u041a": 1604,
  "AL": 1605,
  "20": 1606,
  "min": 1607,
  "iden": 1608,
  "oma": 1609,
  "\u2581Ver": 1610,
  "\u2581Ka": 1611,
  "ales": 1612,
  "att": 1613,
  "\u0e43\u0e19": 1614,
  "sen": 1615,
  "bar": 1616,
  "\u2581hal": 1617,
  "\u2581\u090f\u0915": 1618,
  "\u091c": 1619,
  "\u2581pos": 1620,
  "\u0a95": 1621,
  "\u3044": 1622,
  "\u6708": 1623,
  "AT": 1624,
  "\u2581\u0645\u0627": 1625,
  "isti": 1626,
  "\u2581Ne": 1627,
  "uka": 1628,
  "ash": 1629,
  "itu": 1630,
  "\u0113": 1631,
  "\u00bb.": 1632,
  "\u2581ju": 1633,
  "\u2581\u043c\u0438": 1634,
  "\u0323": 1635,
  "\u00e9r": 1636,
  "ord": 1637,
  "\u25812014": 1638,
  "\u2581bat": 1639,
  "\u2581ann": 1640,
  "\u2581\u0434\u0435": 1641,
  "\u2581\u00b0": 1642,
  "amos": 1643,
  "\u2581\u0647\u0645": 1644,
  "\u09c7": 1645,
  "fe": 1646,
  "\u2581\u0449\u043e": 1647,
  "\u0436\u0435": 1648,
  "\u0433\u0443": 1649,
  "\u0dad\u0dca": 1650,
  "\u0436\u0438": 1651,
  "var": 1652,
  "\u2581bei": 1653,
  "\u00edn": 1654,
  "\u2581jak": 1655,
  "oo": 1656,
  "atan": 1657,
  "\u2581The": 1658,
  "inin": 1659,
  "\u0446\u0430": 1660,
  "\u2581ben": 1661,
  "\u2581entre": 1662,
  "\u2581\u0447\u0435": 1663,
  "\u2581\u092a\u0930": 1664,
  "\u2581bil": 1665,
  "by": 1666,
  "\u2581\u03c3\u03b5": 1667,
  "iste": 1668,
  "\u0644\u064a": 1669,
  "amp": 1670,
  "\u2581Du": 1671,
  "net": 1672,
  "ella": 1673,
  "\u0648\u0644": 1674,
  "\u2581Sch": 1675,
  "ret": 1676,
  "\u2581ved": 1677,
  "sta": 1678,
  "ket": 1679,
  "sp": 1680,
  "nih": 1681,
  "\u2581\u012f": 1682,
  "\u04d9": 1683,
  "ui": 1684,
  "\u2581dal": 1685,
  "\u0930": 1686,
  "\u2581\u0686\u06d0": 1687,
  "ilo": 1688,
  "\u2581Br": 1689,
  "\u2581Commons": 1690,
  "\u0e2a": 1691,
  "\u00bb,": 1692,
  "\u258140": 1693,
  "als": 1694,
  "\u2581\u0631": 1695,
  "\u2581tre": 1696,
  "@": 1697,
  "\u012b": 1698,
  "\u2581\u0417": 1699,
  "\u0446\u0438\u044f": 1700,
  "\u2581\u0628\u0631": 1701,
  "les": 1702,
  "\u2581Da": 1703,
  "\u0446\u044c": 1704,
  "ES": 1705,
  "ule": 1706,
  "\u2581tar": 1707,
  "\u2581fel": 1708,
  "\u0d9a": 1709,
  "\u2581we": 1710,
  ".)": 1711,
  "\u2581\u0411": 1712,
  "ement": 1713,
  "\u041c": 1714,
  "\u0648\u0627": 1715,
  "angan": 1716,
  "uc": 1717,
  "\u2581Pro": 1718,
  "\u2581\u05d0\u05d5\u05df": 1719,
  "\u043c\u0435\u043d": 1720,
  "\u2581\u0440\u0435": 1721,
  "\u2581ng\u01b0\u1eddi": 1722,
  "\u2581nach": 1723,
  "ingen": 1724,
  "sz": 1725,
  "\u2581>": 1726,
  "amente": 1727,
  "age": 1728,
  "\u2581mot": 1729,
  "\u2581sau": 1730,
  "ake": 1731,
  "\u2581\u0642": 1732,
  "\u2581vy": 1733,
  "\u0627\u062f": 1734,
  "\u0444": 1735,
  "\u2581u\u017e": 1736,
  "\u2581pal": 1737,
  "\u0aa8\u0ac0": 1738,
  "\u2581pou": 1739,
  "gr": 1740,
  "\u10d4": 1741,
  "alan": 1742,
  "\u091f": 1743,
  "\u2581oder": 1744,
  "\u2581\u00f3": 1745,
  "\u2581dag": 1746,
  "\u2581\u0440\u0430": 1747,
  "vat": 1748,
  "\u2581uit": 1749,
  "\u2581ten": 1750,
  "\u2581\u0441\u0442\u0430": 1751,
  "\u0561\u0576": 1752,
  "\u2581dig": 1753,
  "\u2581Az": 1754,
  "asta": 1755,
  "van": 1756,
  "\u2581\u043e\u0431": 1757,
  "\u4f1a": 1758,
  "&": 1759,
  "\u2581mon": 1760,
  "\u2581\u067e": 1761,
  "\u2581ett": 1762,
  "itt": 1763,
  "yr": 1764,
  "area": 1765,
  "oh": 1766,
  "\u2581\u03c4\u03c9\u03bd": 1767,
  "esti": 1768,
  "\u00e9t": 1769,
  "\u2581\u0628\u0631\u0627\u06cc": 1770,
  "\u067e": 1771,
  "kar": 1772,
  "vis": 1773,
  "\u2581ons": 1774,
  "\u2581far": 1775,
  "itat": 1776,
  "uta": 1777,
  "red": 1778,
  "\u2581\u043b\u0438": 1779,
  "\u2581pen": 1780,
  "\u2581Ad": 1781,
  "ott": 1782,
  "enta": 1783,
  "eme": 1784,
  "\u2581pel": 1785,
  "\u2581online": 1786,
  "\u2581ai": 1787,
  "\u2581alla": 1788,
  "\u2581Creative": 1789,
  "\u2581\u0422": 1790,
  "\u0dc0": 1791,
  "elen": 1792,
  "\u2581gan": 1793,
  "\u2581\u0634": 1794,
  "ars": 1795,
  "\u2581\u03c3\u03c4\u03bf": 1796,
  "\u043f\u0438": 1797,
  "ador": 1798,
  "\u51fa": 1799,
  "uar": 1800,
  "\u2581\u0622": 1801,
  "`": 1802,
  "\u2581eine": 1803,
  "\u2581mang": 1804,
  "sl": 1805,
  "ure": 1806,
  "\u2581auch": 1807,
  "tig": 1808,
  "\u2581mah": 1809,
  "gu": 1810,
  "\u2581Be": 1811,
  "\u2581\u062a\u0648": 1812,
  "\u2581sch": 1813,
  "osi": 1814,
  "\u0431\u0435": 1815,
  "inu": 1816,
  "oz": 1817,
  "\u2581n\u00e3o": 1818,
  "\u0631\u06cc": 1819,
  "\u2581\u0a86": 1820,
  "ith": 1821,
  "\u2581dels": 1822,
  "\u2581uk": 1823,
  "\u0637": 1824,
  "\u2581\u043f\u0440\u0430": 1825,
  "par": 1826,
  "\u0aae\u0abe\u0a82": 1827,
  "\u2581\u05e1": 1828,
  "\u2581Lo": 1829,
  "kom": 1830,
  "\u2581\u010d": 1831,
  "ono": 1832,
  "2.": 1833,
  "\u2581car": 1834,
  "\u0633\u062a": 1835,
  "\u0db1\u0dca": 1836,
  "aha": 1837,
  "\u2581\u0938": 1838,
  "\u094b\u0902": 1839,
  "ren": 1840,
  "\u0e19": 1841,
  "\u300c": 1842,
  "\u2581\u0906": 1843,
  "yk": 1844,
  "\u2581i\u0161": 1845,
  "endo": 1846,
  "\u0cb0": 1847,
  "\u2581els": 1848,
  "\u258126": 1849,
  "\u2581vous": 1850,
  "\u00e3o": 1851,
  "\u179f": 1852,
  "\u0d28\u0d4d": 1853,
  "uf": 1854,
  "\u044b": 1855,
  "ava": 1856,
  "\u2581Me": 1857,
  "\u2581\uc774": 1858,
  "\u2581col": 1859,
  "\u0db1": 1860,
  "uv": 1861,
  "ulu": 1862,
  "\u2581zijn": 1863,
  "nej": 1864,
  "ht": 1865,
  "\u258128": 1866,
  "\u2581era": 1867,
  "\u2581\u041d\u0435": 1868,
  "ee": 1869,
  "\u2581plus": 1870,
  "AS": 1871,
  "gan": 1872,
  "\u2581\u043f\u0435\u0440\u0435": 1873,
  "\u2581\u2019": 1874,
  "\u2581\u06a9": 1875,
  "urs": 1876,
  "\u043d\u044b\u04a3": 1877,
  "\u0422": 1878,
  "aks": 1879,
  "IN": 1880,
  "\u0daf": 1881,
  "\u03c3": 1882,
  "\u2581gen": 1883,
  "\u5730": 1884,
  "\u5230": 1885,
  "\u0aa8\u0ac7": 1886,
  "ich": 1887,
  "\u0117s": 1888,
  "\u2581\u0645\u0639": 1889,
  "\u2581parte": 1890,
  "let": 1891,
  "osa": 1892,
  "\u2581sv": 1893,
  "\u25812013": 1894,
  "\u2581Sant": 1895,
  "\u0d35": 1896,
  "\u2581Com": 1897,
  "\u0902": 1898,
  "ude": 1899,
  "\u2581pay": 1900,
  "chen": 1901,
  "\u2581pan": 1902,
  "\uc5d0\uc11c": 1903,
  "iki": 1904,
  "aman": 1905,
  ".\"": 1906,
  "for": 1907,
  "nd": 1908,
  "qq": 1909,
  "anta": 1910,
  "bl": 1911,
  "\u2581\u03b5\u03af\u03bd\u03b1\u03b9": 1912,
  "zt": 1913,
  "\u2581pred": 1914,
  "\u2581yon": 1915,
  "\u0433\u0438": 1916,
  "\u2581Ng": 1917,
  "\u2581\u0928\u0947": 1918,
  "\u2581fer": 1919,
  "\u2581Ak": 1920,
  "\u0442\u044c\u0441\u044f": 1921,
  "\u0e25": 1922,
  "\u2581ex": 1923,
  "\u2581post": 1924,
  "\u2581\u043d\u0438": 1925,
  "\u2581Th": 1926,
  "\u2581Je": 1927,
  "\u2581Ja": 1928,
  "lig": 1929,
  "\u0431\u0443": 1930,
  "\u092f": 1931,
  "\u304b": 1932,
  "\u2013": 1933,
  "\u2581\u062c": 1934,
  "\u3057": 1935,
  "19": 1936,
  "edi": 1937,
  "\u03ba": 1938,
  "\u2581Po": 1939,
  "\u0578\u0582\u0569\u0575\u0561\u0576": 1940,
  "ikan": 1941,
  "\u2581;": 1942,
  "\u2581kap": 1943,
  "\u2581web": 1944,
  "\u0dbd": 1945,
  "\u2581\u0413": 1946,
  "\u2581\u05dc": 1947,
  "\u064a\u0627": 1948,
  "\u2581my": 1949,
  "\u2581noc\u00ed": 1950,
  "met": 1951,
  "\u2581mir": 1952,
  "\u0431\u043e": 1953,
  "\u258127": 1954,
  "illa": 1955,
  "\u2581kol": 1956,
  "\u4ed6": 1957,
  "\u2581\u05d4": 1958,
  "\u4e0b": 1959,
  "\u0ab2": 1960,
  "\u2581may": 1961,
  "\u00e4n": 1962,
  "\u0441\u043e": 1963,
  "\u2581vol": 1964,
  "\uacfc": 1965,
  "jes": 1966,
  "\u2581atau": 1967,
  "yi": 1968,
  "\u00e4r": 1969,
  "\u2581dei": 1970,
  "ahan": 1971,
  "ciones": 1972,
  "\u0448\u0438": 1973,
  "\u2581nh\u1eefng": 1974,
  "\u05db": 1975,
  "\u2581\u0939\u094b": 1976,
  "\u2581\u1218": 1977,
  "\u0d28": 1978,
  "emb": 1979,
  "\u2581leg": 1980,
  "chi": 1981,
  "50": 1982,
  "\u2581sex": 1983,
  "\u2581Te": 1984,
  "ator": 1985,
  "\u2581kor": 1986,
  "\u2581Man": 1987,
  "\u2581skal": 1988,
  "\u0300": 1989,
  "\u0441\u0456": 1990,
  "\u0e01": 1991,
  "ros": 1992,
  "\u2581:)": 1993,
  "tt": 1994,
  "\u2581\u0a26\u0a40": 1995,
  "\u2581Is": 1996,
  "\u2581gu": 1997,
  "\u2581??": 1998,
  "12": 1999,
  "\u2581ada": 2000,
  "\u2581Bar": 2001,
  "ors": 2002,
  "\u043d\u044b\u0435": 2003,
  "!!": 2004,
  "\u0414": 2005,
  "\u2581\u0432\u0456\u0434": 2006,
  "\u2581\u05d4\u05de": 2007,
  "\u2581kita": 2008,
  "\u2581\u044d\u0442\u043e": 2009,
  "\u2581san": 2010,
  "\u2581sou": 2011,
  "usa": 2012,
  ".[": 2013,
  "\u06cc\u062f": 2014,
  "oko": 2015,
  "\u0627\u0645": 2016,
  "\u2581nap": 2017,
  "0": 2018,
  "else": 2019,
  "eka": 2020,
  "\u2581fin": 2021,
  "\u2581\u017ce": 2022,
  "1.": 2023,
  "\u2581sm": 2024,
  "cz": 2025,
  "\u2581sol": 2026,
  "\u043b\u0430\u0440": 2027,
  "\u0ab8": 2028,
  "\u0441\u0442\u0432\u0430": 2029,
  "\uc778": 2030,
  "\u2581\u0905": 2031,
  "\u00ea": 2032,
  "\u0441\u0442\u0432\u043e": 2033,
  "IT": 2034,
  "\u2581juga": 2035,
  "\u2581\u0643": 2036,
  "\u03c1": 2037,
  "\u2581bl": 2038,
  "\u0440\u0456": 2039,
  "\u0627\u06cc": 2040,
  "alis": 2041,
  "\u2581Qu": 2042,
  "\u2581dins": 2043,
  "\u0d9a\u0dca": 2044,
  "\u2581\u06a9\u0631": 2045,
  "\u0926": 2046,
  "\u2581\u05d0\u05d9\u05df": 2047,
  "\u05dc\u05d9": 2048,
  "\u09be": 2049,
  "ss": 2050,
  "fer": 2051,
  "\u3084": 2052,
  "esta": 2053,
  "\u10e8\u10d8": 2054,
  "EL": 2055,
  "\u043d\u0438\u0435": 2056,
  "\u2581\u042f": 2057,
  "\u2581tem": 2058,
  "\u2581Ba": 2059,
  "\u0679": 2060,
  "\u2581tal": 2061,
  "\u2581\u0a39\u0a48": 2062,
  "eda": 2063,
  "eks": 2064,
  "\u0636": 2065,
  "\u2581\u00f6": 2066,
  "\u00f6n": 2067,
  "\u10d4\u10d1\u10d8": 2068,
  "\u0aa8": 2069,
  "\u2581\u0915": 2070,
  "\u05d9": 2071,
  "\u2581pu": 2072,
  "\u2581\u0442\u0430\u043a": 2073,
  "\u2581ali": 2074,
  "ej": 2075,
  "\u0e44\u0e14\u0e49": 2076,
  "\u2581sl": 2077,
  "\u06aa": 2078,
  "IS": 2079,
  "yl": 2080,
  "\u2581mod": 2081,
  "\u2581roz": 2082,
  "\u2581mes": 2083,
  "\u2581sel": 2084,
  "\u2581Gr": 2085,
  "\u2581\u05e0": 2086,
  "vet": 2087,
  "alar": 2088,
  "\u03c4\u03b1": 2089,
  "ner": 2090,
  "\u2581pak": 2091,
  "alla": 2092,
  "\u2581bes": 2093,
  "\u2581str": 2094,
  "\u00e1u": 2095,
  "iny": 2096,
  "\uc790": 2097,
  "esa": 2098,
  "\u0627\u0628": 2099,
  "isen": 2100,
  "\u0932\u0940": 2101,
  "\u2581\u041c\u0430": 2102,
  "\u2581bal": 2103,
  "\u25812012": 2104,
  "\u041e": 2105,
  "\u2581\u0647\u0648": 2106,
  "\u2581\u0442": 2107,
  "\u304b\u3089": 2108,
  "\u00fcl": 2109,
  "anga": 2110,
  "ski": 2111,
  "\u0441\u044f": 2112,
  "-1": 2113,
  "\u2581sta": 2114,
  "\u0652": 2115,
  "\u043d\u044f": 2116,
  "\u2581\u041c": 2117,
  "\u2581Ta": 2118,
  "\u0161i": 2119,
  "tek": 2120,
  "\u2581bas": 2121,
  "\u2581\u062d": 2122,
  "ort": 2123,
  "\u0bb5": 2124,
  "tir": 2125,
  "\u0411": 2126,
  "\u0e21": 2127,
  "\u2581foi": 2128,
  "\uc2dc": 2129,
  "\uc0ac": 2130,
  "\u03c0": 2131,
  "\u00e9e": 2132,
  "\u0647\u0645": 2133,
  "\u0432\u0443": 2134,
  "har": 2135,
  "\u2581\u05d5": 2136,
  "\u2581inn": 2137,
  "\u043c\u044b": 2138,
  "\u5bf9": 2139,
  "\u2581film": 2140,
  "\u00e4\u00e4": 2141,
  "\u10db": 2142,
  "\u045a\u0435": 2143,
  "oda": 2144,
  "\u0446\u0438\u0438": 2145,
  "\u2581\u05e7": 2146,
  "\u2581\u092f\u093e": 2147,
  "\u2581program": 2148,
  "\u25815.": 2149,
  "\u2581Ha": 2150,
  "\u00e4\u00e4n": 2151,
  "\u2581ook": 2152,
  "\u2581\u0647": 2153,
  "\u0ab0": 2154,
  "\u10d4\u10d1\u10d8\u10e1": 2155,
  "\u00f6r": 2156,
  "\u05dd": 2157,
  "uni": 2158,
  "\u0631\u0648": 2159,
  "\u2581res": 2160,
  "\u2581\u043d\u044c": 2161,
  "\u4f60": 2162,
  "\u2581\u00e5r": 2163,
  "\u2581\u0622\u0646": 2164,
  "amu": 2165,
  "\u0635": 2166,
  "\u0442\u0430\u0440": 2167,
  "iro": 2168,
  "\u010di": 2169,
  "\u2581\u0dba": 2170,
  "\u2581vor": 2171,
  "\u2581nad": 2172,
  "unk": 2173,
  "OS": 2174,
  "\u2581\u0432\u0435": 2175,
  "\u2581pero": 2176,
  "\u2581\u0928": 2177,
  "\u2581m\u00eb": 2178,
  "tim": 2179,
  "\u063a": 2180,
  "\u0d24": 2181,
  "\u2581upp": 2182,
  "\u1019": 2183,
  "eh": 2184,
  "\u00e8r": 2185,
  "\u2581dom": 2186,
  "15": 2187,
  "\u064a\u0631": 2188,
  "\u2581naj": 2189,
  "\u05e0": 2190,
  "\u05e2\u05e8": 2191,
  "\u2581\u0432\u0441\u0435": 2192,
  "\u2581For": 2193,
  "\u2581\u0449\u0435": 2194,
  "\u2581seu": 2195,
  "\u0433\u0456": 2196,
  "\u2581Ber": 2197,
  "inta": 2198,
  "\u00edt": 2199,
  "\u2581saya": 2200,
  "\u2581Les": 2201,
  "\u2581form": 2202,
  "\u2581\u03b8\u03b1": 2203,
  "\u0cc6": 2204,
  "\u2581\u10db": 2205,
  "\u2581\u041a\u043e": 2206,
  "usta": 2207,
  "\u2581seg": 2208,
  "\u2581\u0686": 2209,
  "\u2581Los": 2210,
  "\u2581vis": 2211,
  "\u2581\u06af": 2212,
  "\u1000": 2213,
  "\u2581Dr": 2214,
  "\u2581cha": 2215,
  "\u0442\u0456": 2216,
  "\u043b\u0435\u043d": 2217,
  "n\u011b": 2218,
  "\u0435\u043c": 2219,
  "\u2581\u1ecd": 2220,
  "3.": 2221,
  "\u0e81\u0eb2\u0e99": 2222,
  "\u0423": 2223,
  "\u2581ent": 2224,
  "\u2581sc": 2225,
  "\u2581plan": 2226,
  "\u0458\u0443": 2227,
  "\u2581ile": 2228,
  "\u0ca8": 2229,
  "idade": 2230,
  "\u0430\u0440": 2231,
  "\uc77c": 2232,
  "\u2581oli": 2233,
  "\u4e3a": 2234,
  "\u2581\u0d05": 2235,
  "\u0e1a": 2236,
  "pen": 2237,
  "\u0935\u093e": 2238,
  "nes": 2239,
  "inde": 2240,
  "\u0441\u0442\u043e": 2241,
  "\u05e0\u05d5": 2242,
  "\u03bc\u03b1": 2243,
  "\u0446\u0456": 2244,
  "\u2581\u0111\u1ec3": 2245,
  "este": 2246,
  "ly": 2247,
  "\u09bf": 2248,
  "\u2581dass": 2249,
  "\u2581\u0160": 2250,
  "\u0101m": 2251,
  "\u2581raz": 2252,
  "\u0645\u0627": 2253,
  "\uc5b4": 2254,
  "\u2581dir": 2255,
  "\u2581\u041f": 2256,
  "ades": 2257,
  "\u2581kul": 2258,
  "uda": 2259,
  "\u2581\u0627\u06cc": 2260,
  "\u2581blog": 2261,
  "\u2581\u0648\u0627\u0644": 2262,
  "\u2581\u0431\u043e": 2263,
  "entes": 2264,
  "\u2581Kar": 2265,
  "\u2581gal": 2266,
  "ald": 2267,
  "ath": 2268,
  "aw": 2269,
  "\u2581ban": 2270,
  "\uc73c\ub85c": 2271,
  "umi": 2272,
  "\ub2e4": 2273,
  "\u2581\u03c3\u03c4\u03b7\u03bd": 2274,
  "\u2581\u092e": 2275,
  "\u043d\u043e\u0439": 2276,
  "\u2581c\u0103": 2277,
  "jet": 2278,
  "ll": 2279,
  "\u0651": 2280,
  "\u2581\u062a\u064a": 2281,
  "\u061f": 2282,
  "\u2581\u0431\u0435\u0437": 2283,
  "\u2581gi": 2284,
  "\u0995": 2285,
  "n\u00e1": 2286,
  "\u308b": 2287,
  "\u2581tai": 2288,
  "11": 2289,
  "\u05da": 2290,
  "\u2581reg": 2291,
  "\u2581At": 2292,
  "\u0101s": 2293,
  "\u25812011": 2294,
  "\u2581vi\u00f0": 2295,
  "\u05e6": 2296,
  "\u05d5\u05df": 2297,
  "\u2581vum": 2298,
  "eza": 2299,
  "\u041f": 2300,
  "\u2581Der": 2301,
  "yan": 2302,
  "\u0412": 2303,
  "\u2581\u03c4\u03bf\u03bd": 2304,
  "\u2581wie": 2305,
  "amento": 2306,
  "\u0932\u093e\u0908": 2307,
  "\u2581\u0906\u0939\u0947": 2308,
  "\u0301": 2309,
  "vu": 2310,
  "\u2581d\u00e9": 2311,
  "\uc2a4": 2312,
  "uan": 2313,
  "\u0578\u057e": 2314,
  "\u2581kung": 2315,
  "\u0e15": 2316,
  "\u044d": 2317,
  "ph": 2318,
  "\u2581Ko": 2319,
  "\u2581mil": 2320,
  "\u2581bij": 2321,
  "nosti": 2322,
  "\u2581Facebook": 2323,
  "\u2581Con": 2324,
  "\u2581uu": 2325,
  "\u2581..": 2326,
  "ungen": 2327,
  "\u3059\u308b": 2328,
  "\u258129": 2329,
  "iek": 2330,
  "\u0930\u093e": 2331,
  "\u2581i\u00e7in": 2332,
  "oka": 2333,
  "\u2581ri": 2334,
  "eko": 2335,
  "\u2581\u0111\u00e3": 2336,
  "iva": 2337,
  "\u016b": 2338,
  "\u1ecd": 2339,
  "\u10d8": 2340,
  "\u2581th\u1ec3": 2341,
  "\u2581\u0627\u0644\u0623": 2342,
  "\u2581wy": 2343,
  "40": 2344,
  "\u05d9\u05d9": 2345,
  "las": 2346,
  "\u2581\u0425": 2347,
  "\u00e1k": 2348,
  "\u2581So": 2349,
  "\u10d9": 2350,
  "\u2581kam": 2351,
  "\u2581\u0565\u0576": 2352,
  "\u0921": 2353,
  "\u5c31": 2354,
  "unt": 2355,
  "\u2581zo": 2356,
  "\u3067\u3059": 2357,
  "\u2581b\u1ea1n": 2358,
  "\u0131r": 2359,
  "\u0142a": 2360,
  "\u2581\u12a0": 2361,
  "eld": 2362,
  "\u2581\u05db": 2363,
  "\u00e8t": 2364,
  "\u2581bol": 2365,
  "ps": 2366,
  "\u2581\u00ebsht\u00eb": 2367,
  "\u05e0\u05d9": 2368,
  "ity": 2369,
  "\u2581nes": 2370,
  "\u06af": 2371,
  "\u092c": 2372,
  "\u2581eu": 2373,
  "\u2581rec": 2374,
  "\u2581\u062e": 2375,
  "\u0d30\u0d4d": 2376,
  "\u2014": 2377,
  "\u2581\u043c\u0435\u043d\u04d9\u043d": 2378,
  "\u2581under": 2379,
  "land": 2380,
  "\u0d15": 2381,
  "\u624b": 2382,
  "\u2581adalah": 2383,
  ".[1]": 2384,
  "\u2581kes": 2385,
  "\u2581\u05d3": 2386,
  "\u04bb\u044b": 2387,
  "of": 2388,
  "\u2581ger": 2389,
  "\u2581Her": 2390,
  "\u2581mor": 2391,
  "\u2581hi": 2392,
  "\u00b7": 2393,
  "enti": 2394,
  "mat": 2395,
  "\u0d3e": 2396,
  "pp": 2397,
  "cie": 2398,
  "\u258160": 2399,
  "\u2581\u0d06": 2400,
  "\u2581sind": 2401,
  "\u00e1m": 2402,
  "\u03af\u03b1": 2403,
  "\u2581esta": 2404,
  "reg": 2405,
  "\u2581\u043c\u043e\u0436\u0435": 2406,
  "\u2581\u0a28\u0a42\u0a70": 2407,
  "\u0e2d": 2408,
  "\u0dbb": 2409,
  "\u25812010": 2410,
  "\u0a15": 2411,
  "\u10e3": 2412,
  "len": 2413,
  "\u2581Mi": 2414,
  "\u10d0\u10e1": 2415,
  "\u2581jy": 2416,
  "\u751f": 2417,
  "\u10e2": 2418,
  "\u04a3": 2419,
  "vel": 2420,
  "\u0aae": 2421,
  "\u1363": 2422,
  "\u043d\u044b\u043c": 2423,
  "ania": 2424,
  "\u0d47": 2425,
  "\u2581ins": 2426,
  "ose": 2427,
  "iza": 2428,
  "\u0644\u0627": 2429,
  "jem": 2430,
  "5.": 2431,
  "\u2581Har": 2432,
  "\u00f5": 2433,
  "keun": 2434,
  "\u2581\u0939\u0948\u0902": 2435,
  "adu": 2436,
  "\u2581\u03c4\u03bf\u03c5\u03c2": 2437,
  "\u2581Wikipedia": 2438,
  "ores": 2439,
  "\u101b": 2440,
  "\u2581Ter": 2441,
  "\u2581nun": 2442,
  "\u0a38": 2443,
  "yon": 2444,
  "\u2581nok": 2445,
  "\u0a28": 2446,
  "rit": 2447,
  "\u2581hay": 2448,
  "\u00fdch": 2449,
  "\u09be\u09b0": 2450,
  "\u2581tek": 2451,
  "uli": 2452,
  "\u0aa4": 2453,
  "\u2581ph": 2454,
  "\u05d5\u05e8": 2455,
  "\u2581\u0a85\u0aa8\u0ac7": 2456,
  "\u2581\u06a9\u0627\u0631": 2457,
  "\u2581niet": 2458,
  "\u2581Mas": 2459,
  "\u2581katika": 2460,
  "\u2581Pa": 2461,
  "\u2581\u017e": 2462,
  "wy": 2463,
  "\u00f9": 2464,
  "ult": 2465,
  "\u2581\u12a8": 2466,
  "\u2581\u041f\u0440\u0438": 2467,
  "tion": 2468,
  "\u0e40\u0e1b\u0e47\u0e19": 2469,
  "\u2581San": 2470,
  "\u2581vid": 2471,
  "\u2581\u0627\u0644\u0639": 2472,
  "\u308a": 2473,
  "aza": 2474,
  "\u2581sing": 2475,
  "\u00f8": 2476,
  "\u00ebt": 2477,
  "n\u00fd": 2478,
  "\u591a": 2479,
  "\u0430\u043d": 2480,
  "\u2581bis": 2481,
  "\u8981": 2482,
  "\u0d30": 2483,
  "hat": 2484,
  "lich": 2485,
  "\u2581\u0935": 2486,
  "\u2581\u0644\u0627": 2487,
  "\u2581\u179f": 2488,
  "\u0e41\u0e25\u0e30": 2489,
  "umu": 2490,
  "\u2581kann": 2491,
  "\u04a1": 2492,
  "ume": 2493,
  "\u05e8\u05d9": 2494,
  "\u2581mig": 2495,
  "\u2581\u0b85": 2496,
  "\u2581ty": 2497,
  "\u064a\u062f": 2498,
  "\u03b1": 2499,
  "\u2581\u05e2": 2500,
  "\u2581Em": 2501,
  "\u044b\u043d": 2502,
  "\u00ebr": 2503,
  "iai": 2504,
  "ux": 2505,
  "\u0159": 2506,
  "\u2581let": 2507,
  "\u2581Sk": 2508,
  "\u043d\u0438\u043a": 2509,
  "jer": 2510,
  "\u0432\u044b": 2511,
  "\u7b49": 2512,
  "\u2581\u091c": 2513,
  "\u03c1\u03b1": 2514,
  "\u043d\u044b\u0439": 2515,
  "mar": 2516,
  "\u2581\u05d0\u05d9\u05d6": 2517,
  "\u2581maar": 2518,
  "\u011f": 2519,
  "ario": 2520,
  "\u0445\u043e": 2521,
  "\u2581nuk": 2522,
  "\u2581\u0627\u0644\u0644\u0647": 2523,
  "\u2581\u05e4\u05d5\u05df": 2524,
  "4.": 2525,
  "cer": 2526,
  "\u0cc1": 2527,
  "\u2581anda": 2528,
  "leg": 2529,
  "\u064a\u0644": 2530,
  "\u045a\u0430": 2531,
  "\u2581\u092c": 2532,
  "idi": 2533,
  "\u2581Bo": 2534,
  "\u2581sie": 2535,
  "\u2581ogs\u00e5": 2536,
  "cs": 2537,
  "\u4e5f": 2538,
  "\u2581sinn": 2539,
  "\u25811,": 2540,
  "rem": 2541,
  "\u0413": 2542,
  "\u09a8": 2543,
  "\u2581id": 2544,
  "\u5206": 2545,
  "\u2581200": 2546,
  "\u2581\u062e\u0648\u062f": 2547,
  "\u03bf": 2548,
  "\u0cbe": 2549,
  "\u2581\u00c9": 2550,
  "\u0644\u06cc": 2551,
  "OR": 2552,
  "oro": 2553,
  "\u2581www": 2554,
  "\u2581Mont": 2555,
  "ET": 2556,
  "\u0e04": 2557,
  "\u0442\u0430\u0439": 2558,
  "ster": 2559,
  "\u2581pun": 2560,
  "\u2581tin": 2561,
  "uj": 2562,
  "\u2581DE": 2563,
  "\u5c0f": 2564,
  "18": 2565,
  "\u2581uNkulunkulu": 2566,
  "\u0420": 2567,
  "\u0917": 2568,
  "oto": 2569,
  "\u017c": 2570,
  "\u2581\u0625": 2571,
  "l\u0131": 2572,
  "\u5bb6": 2573,
  "oll": 2574,
  "\u2581Op": 2575,
  "\u043d\u043e\u043c": 2576,
  "\u10d4\u10d1\u10d0": 2577,
  "cija": 2578,
  "\u2581[...]": 2579,
  "\u0493\u044b": 2580,
  "\u0a32": 2581,
  "\u00e6": 2582,
  "\u2581tro": 2583,
  "\u2581palibot": 2584,
  "\u0437\u043d\u0430": 2585,
  "\u2581ker": 2586,
  "\u10d0\u10dc": 2587,
  "\u00e4t": 2588,
  "\u1ee5": 2589,
  "\u2581bor": 2590,
  "\u1228": 2591,
  "\u2581\u0442\u0438": 2592,
  "\u2581Car": 2593,
  "\u2581Im": 2594,
  "ony": 2595,
  "\u2581\u041a\u0430": 2596,
  "\u2581mb": 2597,
  "\u2581mel": 2598,
  "\u2581\u043b\u0430": 2599,
  "\u2581\u12ed": 2600,
  "\u7528": 2601,
  "25": 2602,
  "\u0cbf": 2603,
  "\u1208": 2604,
  "\u2581%": 2605,
  "\u2581bak": 2606,
  "ulo": 2607,
  "zu": 2608,
  "iso": 2609,
  "\u2581nov": 2610,
  "pt": 2611,
  "\u2581\u0441\u0430\u043c\u043e": 2612,
  "IA": 2613,
  "\u05e8\u05d5": 2614,
  "\u2581Et": 2615,
  "\u2581\u0436\u0435": 2616,
  "\u25816.": 2617,
  "\u03bc": 2618,
  "ego": 2619,
  "\u2581\u05d7": 2620,
  "\u0e17": 2621,
  "\u00f3s": 2622,
  "tic": 2623,
  "\u2581Pre": 2624,
  "\u0a24": 2625,
  "igh": 2626,
  "\u2581unha": 2627,
  "\u2581chi": 2628,
  "\u00e5": 2629,
  "\u2581\u0110": 2630,
  "\u2581hu": 2631,
  "esch": 2632,
  "\u043d\u0430\u044f": 2633,
  "\u2581@": 2634,
  "dir": 2635,
  "\u2581cre": 2636,
  "\u2581jeung": 2637,
  "\u2581vu": 2638,
  "\u0e14": 2639,
  "\u012f": 2640,
  "\u2581video": 2641,
  "\u0939": 2642,
  "AD": 2643,
  "\u2581don": 2644,
  "ota": 2645,
  "\u10d2": 2646,
  "\u2581\u0578\u0580": 2647,
  "\u2581ett\u00e4": 2648,
  "\u2581(1": 2649,
  "\u2581vai": 2650,
  "\u2581\u0639\u0646": 2651,
  "\u2581Co": 2652,
  "AM": 2653,
  "aria": 2654,
  "ants": 2655,
  "adan": 2656,
  "\u1794": 2657,
  "\u2581gar": 2658,
  "\u2581kok": 2659,
  "jan": 2660,
  "\u2581bien": 2661,
  "andi": 2662,
  "\u2581\u05d9": 2663,
  "\u2581hier": 2664,
  "\u0dc3": 2665,
  "\u2581\u0627\u0644\u062a": 2666,
  "kr": 2667,
  "\u0437\u0443": 2668,
  "\u2581vers": 2669,
  "\u03c9": 2670,
  "tar": 2671,
  "\u2581\u06cc\u06a9": 2672,
  "\u0259n": 2673,
  "\u2581\u043c\u0435": 2674,
  "\u05e0\u05d4": 2675,
  "\u03c4\u03bf": 2676,
  "\u0441\u043a\u043e": 2677,
  "\u0cb5": 2678,
  "\u0bae\u0bcd": 2679,
  "\u0942": 2680,
  "!!!": 2681,
  "\u09b0": 2682,
  "\u2581Por": 2683,
  "\u2581Mo": 2684,
  "\u10d0\u10d3": 2685,
  "\u2581\u0625\u0644\u0649": 2686,
  "\u09c0": 2687,
  "\u2581pra": 2688,
  "\u0561\u0580": 2689,
  "\u2581ste": 2690,
  "\u2581inter": 2691,
  "anje": 2692,
  "\u0446\u0438\u0458\u0430": 2693,
  "\u0941": 2694,
  "ams": 2695,
  "\u2581c\u00f4ng": 2696,
  "\u2581werden": 2697,
  "\u10d3\u10d0": 2698,
  "\u2581mus": 2699,
  "ON": 2700,
  "idh": 2701,
  "imin": 2702,
  "\u90fd": 2703,
  "\u10d7": 2704,
  "\u0580": 2705,
  "issa": 2706,
  "pas": 2707,
  "\u0565\u0580": 2708,
  "idad": 2709,
  "\u2581kepada": 2710,
  "\u00e9k": 2711,
  "\u03c4\u03b7": 2712,
  "\u2581\u0628\u0639\u062f": 2713,
  "\u0b15": 2714,
  "\u2581ayaa": 2715,
  "\u10d0\u10e0": 2716,
  "\u041b": 2717,
  "\u0dba\u0dd2": 2718,
  "\u05ea\u05d9": 2719,
  "\u2581\u05e6\u05d5": 2720,
  "\u03af": 2721,
  "\u03c3\u03b7": 2722,
  "str": 2723,
  "ques": 2724,
  "\u2581\u06a9\u0627\u0646": 2725,
  "\u2581\u0924": 2726,
  "\u9ad8": 2727,
  "\u2581gel": 2728,
  "\u043a\u043e\u0432": 2729,
  "\u03bf\u03c5": 2730,
  "\u2581\u05ea": 2731,
  "aire": 2732,
  "UN": 2733,
  "cions": 2734,
  "\u2581sek": 2735,
  "\u2581\u0627\u0644\u062d": 2736,
  "kat": 2737,
  "aliz": 2738,
  "\u2581\u03c4\u03b7": 2739,
  "\u2581He": 2740,
  "aku": 2741,
  "\u0561\u056f": 2742,
  "\u043d\u0438\u043c": 2743,
  "\u2581\u0436\u04d9\u043d\u0435": 2744,
  "\u2581f\u00e5": 2745,
  "\u2581cap": 2746,
  "\u044e\u0442": 2747,
  "\u0b95": 2748,
  "\u0435\u043d": 2749,
  "aa": 2750,
  "\u5b50": 2751,
  "\u2581n\u00e0y": 2752,
  "\u2581tam": 2753,
  "\u2581Um": 2754,
  "aro": 2755,
  "\u0db8\u0dca": 2756,
  "\u2581Nu": 2757,
  "\u2581Or": 2758,
  "AK": 2759,
  "\u2581\u0915\u0930": 2760,
  "\u021bi": 2761,
  "\u2581\u0dbb": 2762,
  "\u0d4b": 2763,
  "\u0bb0\u0bcd": 2764,
  "\u2581ham": 2765,
  "\u2581wir": 2766,
  "iku": 2767,
  "osti": 2768,
  "\u5fc3": 2769,
  "\u0d38": 2770,
  "mm": 2771,
  "US": 2772,
  "\u06cc\u0645": 2773,
  "bat": 2774,
  "\u2581olan": 2775,
  "\u00eds": 2776,
  "\u2581ot": 2777,
  "\u2581\u0414\u043e": 2778,
  "\u2581s\u00e9": 2779,
  "war": 2780,
  "\u2581koji": 2781,
  "\u0d32": 2782,
  "\u2581mem": 2783,
  "\u2581nou": 2784,
  "xe": 2785,
  "\u2581ili": 2786,
  "\u0626": 2787,
  "\u03b3": 2788,
  "\u03b4": 2789,
  "\u2581\u0430\u0434": 2790,
  "lat": 2791,
  "nen": 2792,
  "kel": 2793,
  "uti": 2794,
  "\u2581\u041d\u043e": 2795,
  "\u0e1e": 2796,
  "eden": 2797,
  "\u2581???": 2798,
  "\u2581\u0458\u0430": 2799,
  "\u0c95": 2800,
  "\u5929": 2801,
  "\u0e43\u0e2b\u0e49": 2802,
  "\u017ei": 2803,
  "\u2581http": 2804,
  "\u179a": 2805,
  "\u2581\u0437\u043d\u0430": 2806,
  "\u0434\u0430\u043d": 2807,
  "\u2581\u0434": 2808,
  "\u0930\u0940": 2809,
  "\u2581oleh": 2810,
  "xa": 2811,
  "\u201c,": 2812,
  "d\u0259": 2813,
  "\u10db\u10d0": 2814,
  "\u884c": 2815,
  "\u2581\u0ec1\u0ea5\u0eb0": 2816,
  "\u2581\u044d": 2817,
  "\u2581\u0446\u0435": 2818,
  "inga": 2819,
  "\u2581Sal": 2820,
  "\u2581\u0e41\u0e25\u0e30": 2821,
  "ment": 2822,
  "\u06bb": 2823,
  "\u2581sil": 2824,
  "):": 2825,
  "itar": 2826,
  "\u0431\u044b": 2827,
  "\u2581\u0628\u0627\u0644": 2828,
  "hr": 2829,
  "anna": 2830,
  "emi": 2831,
  "\u2581sono": 2832,
  "\u2581\u062a\u0631": 2833,
  "\u2581\u00fa": 2834,
  "\u2581gratis": 2835,
  "\u2581sub": 2836,
  "\u0259r": 2837,
  "\u043f\u0435": 2838,
  "\u2581\u09b8": 2839,
  "ione": 2840,
  "lad": 2841,
  "\u0448\u044b": 2842,
  "\u2581\u0107e": 2843,
  "\u2581\u0d2e": 2844,
  "7.": 2845,
  "\u2581\u092a": 2846,
  "\u2581kang": 2847,
  "\u2581\u05d2": 2848,
  "*": 2849,
  "\u2581ned": 2850,
  "\u2581peng": 2851,
  "\u0161a": 2852,
  "\u2581\u0627\u06cc\u06a9": 2853,
  "\u2581est\u00e1": 2854,
  "\u2581\u0a9c": 2855,
  "\u0a1a": 2856,
  "\u091a\u094d\u092f\u093e": 2857,
  "\u2581Os": 2858,
  "ater": 2859,
  "\u2581\u092a\u094d\u0930": 2860,
  "60": 2861,
  "\u2581orang": 2862,
  "isten": 2863,
  "\u2581\u0438\u043c\u0430": 2864,
  "\u2581internet": 2865,
  "\u2581noma": 2866,
  "\u2581via": 2867,
  "\u0644\u0648": 2868,
  "\u120b": 2869,
  "\u25812009": 2870,
  "\u2581eg": 2871,
  "\u2581\u0421\u0430": 2872,
  "\u2581dy": 2873,
  "odi": 2874,
  "\u2581\u0433\u0438": 2875,
  "\u0e1b": 2876,
  "\u093f\u0915": 2877,
  "www": 2878,
  "\u2581Ny": 2879,
  "\u65b0": 2880,
  "6.": 2881,
  "orn": 2882,
  "it\u00e9": 2883,
  "\u2581\u0915\u093f": 2884,
  "\u2581ses": 2885,
  "akt": 2886,
  "\u2581khi": 2887,
  "\u2581forma": 2888,
  "\u2581\u062f\u06cc": 2889,
  "\u2581fe": 2890,
  "\u2581sup": 2891,
  "\u062b": 2892,
  "\u00f4": 2893,
  "\u3063\u3066": 2894,
  "\u0ba4\u0bcd\u0ba4": 2895,
  "gar": 2896,
  "\u0ba4": 2897,
  "\u10e3\u10da\u10d8": 2898,
  "iska": 2899,
  "\u2581pres": 2900,
  "cio": 2901,
  "\u2581nog": 2902,
  "\u093f\u0924": 2903,
  "ef": 2904,
  "\u0648\u0645": 2905,
  "\u00e7a": 2906,
  "\u0442\u0435\u0440": 2907,
  "\u2581\u0406": 2908,
  "\u2581milimetro": 2909,
  "\u2581seo": 2910,
  "pu": 2911,
  "\u2581Su": 2912,
  "\u2581\u043c\u0443": 2913,
  "\u0dc3\u0dca": 2914,
  "\u2581mereka": 2915,
  "\u00e9iert": 2916,
  "nak": 2917,
  "\u0ba4\u0bc1": 2918,
  "\u0924\u0947": 2919,
  "asan": 2920,
  "\u0576\u0565\u0580\u056b": 2921,
  "oba": 2922,
  "\u2581\u0628\u06be\u06cc": 2923,
  "\u2581fl": 2924,
  "\u064a\u0648": 2925,
  "\u2581\u0414\u0430": 2926,
  "ser": 2927,
  "\u2581pang": 2928,
  "\u04af": 2929,
  "\u2581ukuba": 2930,
  "udi": 2931,
  "\u0589": 2932,
  "\u12f5": 2933,
  "\u2581\u10d0\u10e0": 2934,
  "\u2581\u0648\u064a": 2935,
  "\u2581data": 2936,
  "\u2581\u0395": 2937,
  "\u0644\u0647": 2938,
  "\u2581soo": 2939,
  "ces": 2940,
  "\u2581\u0397": 2941,
  "\u2581cel": 2942,
  "13": 2943,
  "\u2581\u0422\u0430": 2944,
  "ilor": 2945,
  "\u0415": 2946,
  "\u2581me\u00f0": 2947,
  "9.": 2948,
  "\u2581\u0633\u0627\u0646": 2949,
  "\u00ec": 2950,
  "arr": 2951,
  "\u122b": 2952,
  "\u1780": 2953,
  "\u03cc": 2954,
  "\u0434\u0430\u0440": 2955,
  "azi": 2956,
  "\u0433\u04d9": 2957,
  "ette": 2958,
  "\u2581kot": 2959,
  "\u03ac": 2960,
  "\u2581up": 2961,
  "\u0a3e\u0a02": 2962,
  "\u2581Anda": 2963,
  "\u304a": 2964,
  "\u304f": 2965,
  "\u2581\u0391": 2966,
  "itet": 2967,
  "\u2581idi": 2968,
  "\u2581\u0438\u0445": 2969,
  "\u0445\u0438": 2970,
  "\u09ae": 2971,
  "\u2581\u0433\u0430": 2972,
  "\uc815": 2973,
  "\u2581\u1270": 2974,
  "\u2581anu": 2975,
  "pan": 2976,
  "\u2581ub": 2977,
  "\u4e8b": 2978,
  "24": 2979,
  "itas": 2980,
  "\u2581\u0440\u043e": 2981,
  "\uc7a5": 2982,
  "\u0435\u0440": 2983,
  "2,": 2984,
  "\ud574": 2985,
  "\u2581tha": 2986,
  "apa": 2987,
  "\u0163i": 2988,
  "car": 2989,
  "ns": 2990,
  "\u10d6\u10d4": 2991,
  "\uc640": 2992,
  "\ub300": 2993,
  "\u0e04\u0e27\u0e32\u0e21": 2994,
  "\u00e9m": 2995,
  "\u03b5\u03b9": 2996,
  "\u2581\u0633\u0627\u0644": 2997,
  "\u1260": 2998,
  "\u06cc\u062a": 2999,
  "\u2581\u0b95": 3000,
  "\u2581\u044f\u043a": 3001,
  "\u064a\u062a": 3002,
  "\u2581\u0db4\u0dca": 3003,
  "\u2581v\u00e6re": 3004,
  "\u2581\u0432\u0430": 3005,
  "olog": 3006,
  "17": 3007,
  "has": 3008,
  "alen": 3009,
  "\u2581vel": 3010,
  "\u2581Jeg": 3011,
  "\u00e8l": 3012,
  "\u0d2e": 3013,
  "\u2581\u05e4": 3014,
  "\u2581Ge": 3015,
  "\u05d5\u05dc": 3016,
  "16": 3017,
  "\u2581Do": 3018,
  "\u0441\u0430\u043d": 3019,
  "\u2581il\u0259": 3020,
  "ovi": 3021,
  "\u05d3\u05d9": 3022,
  "\u0418": 3023,
  "hac": 3024,
  "14": 3025,
  "uy": 3026,
  "\u2581\u06aa": 3027,
  "ull": 3028,
  "\u2581avec": 3029,
  "\u2581tout": 3030,
  "\u2581\u06c1\u06cc\u06ba": 3031,
  "\u2581Fr": 3032,
  "pat": 3033,
  "\u2581Om": 3034,
  "\u2581l\u00e0m": 3035,
  "\u0947": 3036,
  "kas": 3037,
  "nost": 3038,
  "\u2581\u05d0\u05b7": 3039,
  "wen": 3040,
  "\u0e27\u0e48\u0e32": 3041,
  "hal": 3042,
  "\u2581\u043c": 3043,
  "\uc218": 3044,
  "\u0924\u0940": 3045,
  "\u2581Google": 3046,
  "1,": 3047,
  "\u2581Li": 3048,
  "\u2581nh\u01b0": 3049,
  "uto": 3050,
  "\u597d": 3051,
  "\u2581\u0411\u0430": 3052,
  "\u00f3l": 3053,
  "\u2581\u043d\u0430\u0441": 3054,
  "\u2581organiz": 3055,
  "irt": 3056,
  "\u306e\u3067": 3057,
  "\u03ad": 3058,
  "\u2581hin": 3059,
  "\u2581best": 3060,
  "\u0d1f": 3061,
  "\u2581(19": 3062,
  "\u2581lok": 3063,
  "\u0437\u0435": 3064,
  "\u2581\u03b4\u03b5\u03bd": 3065,
  "\uc8fc": 3066,
  "\u2581tiada": 3067,
  "\u0bae": 3068,
  "\u2581cal": 3069,
  "ums": 3070,
  "\u044a\u0442": 3071,
  "\u2581v\u1ec1": 3072,
  "anti": 3073,
  "\u2581\u062c\u0627": 3074,
  "\u094b": 3075,
  "\u2581m\u00e1": 3076,
  "\u2581kup": 3077,
  "\u2581nei": 3078,
  "\u2581\u03b1": 3079,
  "\u2581500": 3080,
  "\u2581\u0a26\u0a3e": 3081,
  "\u2581Kom": 3082,
  "\u0441\u044c": 3083,
  "\u2581pi\u00f9": 3084,
  "\u2581\u0431": 3085,
  "\u2581\u05d8": 3086,
  "\u2581opp": 3087,
  "\u0425": 3088,
  "erd": 3089,
  "\u2581dapat": 3090,
  "ago": 3091,
  "uga": 3092,
  "\u043d\u0430\u043d": 3093,
  "\u2581Mal": 3094,
  "000": 3095,
  "\u0908": 3096,
  "\u2581\u0631\u0648": 3097,
  "\u0437\u043e": 3098,
  "\u0d2f": 3099,
  "\u2581\u0daf": 3100,
  "uer": 3101,
  "\u2581Nam": 3102,
  "\u2581bon": 3103,
  "\u0493\u0430\u043d": 3104,
  "\u0d7c": 3105,
  "\u2581\u0412\u0438": 3106,
  "\u2581\u0632": 3107,
  "tiv": 3108,
  "\u067d": 3109,
  "emp": 3110,
  "\u2581huet": 3111,
  "uba": 3112,
  "\u2581\u0c95": 3113,
  "\u0e0a": 3114,
  "\u0440\u0435\u043d": 3115,
  "\u091a\u0947": 3116,
  "\u2581efter": 3117,
  "\u2581tas": 3118,
  "\u2581ning": 3119,
  "\u03b2": 3120,
  "hen": 3121,
  "\u2581\u0111\u1ebfn": 3122,
  "annya": 3123,
  "\u0cae": 3124,
  "\u03c5": 3125,
  "\u0627\u0631\u06cc": 3126,
  "\u2581\u10d9": 3127,
  "\u2581tik": 3128,
  "80": 3129,
  "azione": 3130,
  "\u057e\u0561\u056e": 3131,
  "\u00e9l": 3132,
  "\u03b7": 3133,
  "\u0cb2": 3134,
  "nych": 3135,
  "\u2581nang": 3136,
  "\u17b6": 3137,
  "\u2581Kr": 3138,
  "\u2581\u0634\u062f\u0647": 3139,
  "\u03c7": 3140,
  "\u0628\u0631": 3141,
  "ei": 3142,
  "\u2581end": 3143,
  "\u1000\u102d\u102f": 3144,
  "\u2581rad": 3145,
  "\u05d0\u05b7": 3146,
  "\u0939\u0940": 3147,
  "\u0b15\u0b41": 3148,
  "jas": 3149,
  "\u0442\u0430\u043d": 3150,
  "\u0a2e": 3151,
  "ex": 3152,
  "\u0440\u043e\u0432": 3153,
  "\u2581can": 3154,
  "\u12ad": 3155,
  "\u0a30": 3156,
  "\u2581II": 3157,
  "\u2581cm": 3158,
  "\u2581site": 3159,
  "\u091a\u093e": 3160,
  "\u1273": 3161,
  "\u2581lebih": 3162,
  "\u2581bin": 3163,
  "\u2581\u0439": 3164,
  "\u2581gw": 3165,
  "\u2581\u0db8": 3166,
  "\u2581Go": 3167,
  "\u03c6": 3168,
  "\u2581deposit": 3169,
  "\u2581przy": 3170,
  "ix": 3171,
  "\u2581\u043e\u043d": 3172,
  "\u2581\u06c1\u06d2\u06d4": 3173,
  "anan": 3174,
  "\u2581s\u00fa": 3175,
  "\u2581On": 3176,
  "\u4ee5": 3177,
  "\u2581\u0441\u044a": 3178,
  "\u2581\u0c85": 3179,
  "\u1ecb": 3180,
  "uss": 3181,
  "\u529b": 3182,
  "\u0e44\u0e1b": 3183,
  "\u2581god": 3184,
  "\u09ac": 3185,
  "pro": 3186,
  "\u2581sak": 3187,
  "\u0936": 3188,
  "\u2581\u0111": 3189,
  "\u0627\u0646\u06cc": 3190,
  "\u2581\u03bf\u03b9": 3191,
  "izi": 3192,
  "\u0417": 3193,
  "\u2581Ku": 3194,
  "\u2581\u0424": 3195,
  "\u2581Kon": 3196,
  "\u0bbe": 3197,
  "fu": 3198,
  "antes": 3199,
  "\u2581\u0445": 3200,
  "\u2581\u0130": 3201,
  "\u2581gl": 3202,
  "\u2581\u12e8\u121a": 3203,
  "por": 3204,
  "\u0e32": 3205,
  "\u25817.": 3206,
  "\u0923": 3207,
  "\u2581\u0d85": 3208,
  "\u2581nasod": 3209,
  "kon": 3210,
  "\u2581\u092d\u0940": 3211,
  "amas": 3212,
  "ome": 3213,
  "\u03c4\u03b5": 3214,
  "\u2581\u0db4": 3215,
  "\u03c1\u03bf": 3216,
  "\u2581Med": 3217,
  "\u6765": 3218,
  "8.": 3219,
  "\u2581bel": 3220,
  "\u0430\u043b": 3221,
  "\u0e22": 3222,
  "eth": 3223,
  "\u05de\u05d9": 3224,
  "\u0446\u0456\u0457": 3225,
  "\u672c": 3226,
  "\u2581\u10db\u10dd": 3227,
  "IL": 3228,
  "\u2581nd": 3229,
  "ode": 3230,
  "\u0630": 3231,
  "\u0131m": 3232,
  "oy": 3233,
  "\u2581set": 3234,
  "\u03bd": 3235,
  "\u8bf4": 3236,
  "l\u0259r": 3237,
  "\u2581\u05d3\u05e2\u05e8": 3238,
  "\u043a\u043e\u043c": 3239,
  "\u2581\u00fcber": 3240,
  "\u0d31": 3241,
  "\u2581\u063a": 3242,
  "90": 3243,
  "\u1265": 3244,
  "\u043d\u0434": 3245,
  "\u043b\u044e": 3246,
  "\u0432\u0430\u0442": 3247,
  "\u0948": 3248,
  "\u2581dina": 3249,
  "\u2581n\u00e1": 3250,
  "\u10d4\u10d1\u10e1": 3251,
  "\u2581hor": 3252,
  "\u2581inc": 3253,
  "\u2581\u043d\u0430\u0439": 3254,
  "\u2581=": 3255,
  "agi": 3256,
  "70": 3257,
  "\u2581\u0445\u0430": 3258,
  "\u043e\u0440": 3259,
  "\u2581sar": 3260,
  "\u00b0": 3261,
  "\u03ae": 3262,
  "\u0bb2": 3263,
  "imas": 3264,
  "\u2581bra": 3265,
  "\u524d": 3266,
  "\u0447\u0443": 3267,
  "\u2581\u05de\u05d4": 3268,
  "\u05d5\u05d9": 3269,
  "\u2581pla": 3270,
  "\u2581s\u1ebd": 3271,
  "\u2581Allah": 3272,
  "\u2581telah": 3273,
  "\u2581noch": 3274,
  "\u2581\u041f\u0430": 3275,
  "wer": 3276,
  "\u2581kab": 3277,
  "\u2581TV": 3278,
  "\u800c": 3279,
  "AB": 3280,
  "unda": 3281,
  "\u0938\u093e": 3282,
  "\u2581\u062a\u0627": 3283,
  "\u2581\u041f\u0440\u043e": 3284,
  "anya": 3285,
  "ive": 3286,
  "\u6027": 3287,
  "\u044f\u0442": 3288,
  "\u0442\u043e\u0432": 3289,
  "\u2581sunt": 3290,
  "rin": 3291,
  "\u104b": 3292,
  "\ud558\ub294": 3293,
  "\u0574\u0561\u0576": 3294,
  "osta": 3295,
  "\u2581Od": 3296,
  "\u2581Ag": 3297,
  "zer": 3298,
  "\u0457": 3299,
  "\u2581ole": 3300,
  "leri": 3301,
  "\u2581vez": 3302,
  "nim": 3303,
  "\u2581ani": 3304,
  "TA": 3305,
  "\u0e21\u0e35": 3306,
  "\u2581\u0412\u043e": 3307,
  "\u2581\u03c4\u03b9\u03c2": 3308,
  "\u2581Iz": 3309,
  "nos": 3310,
  "\u2581alt": 3311,
  "\u2581\u10e1": 3312,
  "omb": 3313,
  "\u010de": 3314,
  "\u2581kommer": 3315,
  "\u0b95\u0bcd\u0b95": 3316,
  "\u2581dating": 3317,
  "\u2581kel": 3318,
  "\u1290": 3319,
  "\u0d15\u0d4d\u0d15": 3320,
  "\u2581\u039f": 3321,
  "\u25812008": 3322,
  "ove": 3323,
  "\u00fcr": 3324,
  "anja": 3325,
  "\u05d8\u05d9": 3326,
  "\u2581r\u00e9": 3327,
  "\u2581sua": 3328,
  "\u2581\u0b2a": 3329,
  "sko": 3330,
  "\u0d38\u0d4d": 3331,
  "\u10d5": 3332,
  "\u2581\u10e0\u10dd\u10db": 3333,
  "\u0b2a": 3334,
  "\uc6d0": 3335,
  "\u2581\u0628\u0646": 3336,
  "\u0561": 3337,
  "mes": 3338,
  "\u2581(2)": 3339,
  "\u2581super": 3340,
  "uko": 3341,
  "\u12eb": 3342,
  "\u2581\u06cc": 3343,
  "\u2581Mat": 3344,
  "\u2581\u10d2": 3345,
  "sch": 3346,
  "\u0e23": 3347,
  "\u044c": 3348,
  "\u2581\u0dc3": 3349,
  "\u043d\u043e\u0432": 3350,
  "\u2581\u043f": 3351,
  "sten": 3352,
  "\uc11c": 3353,
  "oso": 3354,
  "\u2581\u0434\u0438": 3355,
  "\u2581hun": 3356,
  "\u00f6k": 3357,
  "\u2581\u0628\u06cc": 3358,
  "\u2581Dan": 3359,
  "bal": 3360,
  "\u2581News": 3361,
  "\u10ee": 3362,
  "\u2581kuwa": 3363,
  "\u0e21\u0e32": 3364,
  "\u2581\u0627\u0644\u0633": 3365,
  "aten": 3366,
  "\u2581t\u1ea1i": 3367,
  "\u017ee": 3368,
  "\u0ab5\u0abe": 3369,
  "nom": 3370,
  "\u0cb0\u0cc1": 3371,
  "anie": 3372,
  "\u2581nav": 3373,
  "zione": 3374,
  "\u0447\u043d\u043e": 3375,
  "\u00f8r": 3376,
  "\u2581sab": 3377,
  "\u258180": 3378,
  "\u2581\u05dc\u05d4": 3379,
  "\u0648\u06cc": 3380,
  "ary": 3381,
  "igen": 3382,
  "ush": 3383,
  "\u2581Pe": 3384,
  "\u0441\u043a": 3385,
  "as\u0131": 3386,
  "\u2581iki": 3387,
  "\u2581dla": 3388,
  "\u2581vill": 3389,
  "ED": 3390,
  "\u5f97": 3391,
  "\u2581hy": 3392,
  "\u12ed": 3393,
  "\u2581Pas": 3394,
  "\u0645\u0646": 3395,
  "\u2581daytoy": 3396,
  "kur": 3397,
  ",\u201d": 3398,
  "\u2581\u0939": 3399,
  "\u2581\u06cc\u0627": 3400,
  "\u2581kami": 3401,
  "\u2581Av": 3402,
  "\u0dbd\u0dca": 3403,
  "\u2581\u0431\u0443\u0439\u044b\u043d\u0441\u0430": 3404,
  "etan": 3405,
  "\u2581ska": 3406,
  "\u0646\u064a": 3407,
  "\u8fd9": 3408,
  "\u03cd": 3409,
  "\u2581f\u00e5r": 3410,
  "\u055d": 3411,
  "\u2581\u0d9a": 3412,
  "\u121b": 3413,
  "\u2581v\u00fd": 3414,
  "\u2581ama": 3415,
  "\u2581\u03ba": 3416,
  "\u2581\u0421\u043e": 3417,
  "\u043d\u043d\u044f": 3418,
  "\u2581person": 3419,
  "\u10e0": 3420,
  "\u2581Ga": 3421,
  "\u0aa1": 3422,
  "igt": 3423,
  "\u0432\u0430\u043d\u0435": 3424,
  "\u2581ant": 3425,
  "\u2581\u10d8": 3426,
  "con": 3427,
  "eke": 3428,
  "\u101e": 3429,
  "\u0d24\u0d3f": 3430,
  "\u2581\u00c1": 3431,
  "\u2581dell": 3432,
  "able": 3433,
  "\u0686": 3434,
  "\u03bb": 3435,
  "\u0648\u064a": 3436,
  "\u0648\u062f": 3437,
  "\u2581jos": 3438,
  "kov": 3439,
  "\u2581\u17a2": 3440,
  "\u0bb2\u0bcd": 3441,
  "\u0435\u0442\u0441\u044f": 3442,
  "\u7740": 3443,
  "\u1263": 3444,
  "our": 3445,
  "\u258135": 3446,
  "\u2581\u0db8\u0dda": 3447,
  "\u2581zap": 3448,
  "\u2581\u0431\u0435": 3449,
  "jon": 3450,
  "\u2581\u045c\u0435": 3451,
  "\u0bb0": 3452,
  "\u5316": 3453,
  "\u2581\u0442\u0443": 3454,
  "cije": 3455,
  "\u2581nez": 3456,
  "\u2581fost": 3457,
  "\u8005": 3458,
  "\u0b28": 3459,
  "\u2581\u0932\u093f\u090f": 3460,
  "\u0130": 3461,
  "\u0449\u0430": 3462,
  "\u0627\u0626\u064a": 3463,
  "\u0440\u0430\u043d": 3464,
  "\u2581gran": 3465,
  "\u2581All": 3466,
  "\u0ba9\u0bcd": 3467,
  "esc": 3468,
  "\u2581\u0635": 3469,
  "\u2581cas": 3470,
  "\u2581\u1edf": 3471,
  "oti": 3472,
  ">": 3473,
  "\u09be\u09a8": 3474,
  "\u03bd\u03bf": 3475,
  "\u4e0e": 3476,
  "\u2581\u03a3": 3477,
  "\u06d4": 3478,
  "tie": 3479,
  "\u2581tom": 3480,
  "\u10d4\u10e1": 3481,
  "\u2581\u041c\u0438": 3482,
  "\u2581mm": 3483,
  "\u0b2e": 3484,
  "\u0633\u064a": 3485,
  "\u041d": 3486,
  "\u2581Ob": 3487,
  "\u2581cada": 3488,
  "\u2581\u0448": 3489,
  "\u2581\u0995": 3490,
  "\u3057\u3066": 3491,
  "\u2581fyrir": 3492,
  "\u2581zum": 3493,
  "imu": 3494,
  "ron": 3495,
  "\u05d1\u05d9": 3496,
  "dr": 3497,
  "ey": 3498,
  "\u0131nda": 3499,
  "\u25818.": 3500,
  "\u2581tri": 3501,
  "\u2581Min": 3502,
  "\u0d24\u0d4d": 3503,
  "\u10d8\u10dc": 3504,
  "\u043a\u0430\u0442\u0430": 3505,
  "\u0437\u044b": 3506,
  "\u0431\u0456": 3507,
  "gy": 3508,
  "\u2581deg": 3509,
  "\u0441\u0442\u0435": 3510,
  "jar": 3511,
  "\u2581saat": 3512,
  "\u2581fr\u00e5n": 3513,
  "\u03b8": 3514,
  "\u2581\uadf8": 3515,
  "\u0dad": 3516,
  "ento": 3517,
  "asti": 3518,
  "\u00f3r": 3519,
  "\u03c4": 3520,
  "essa": 3521,
  "iten": 3522,
  "\u10d4\u10e0": 3523,
  "amin": 3524,
  "\u2581\u05db\u05dc": 3525,
  "\u0dda": 3526,
  "\u043b\u044b\u049b": 3527,
  "\u2581\u041d": 3528,
  "uru": 3529,
  "\u2581\u10d2\u10d0": 3530,
  "ents": 3531,
  "\u2581nom": 3532,
  "\u3068\u3044\u3046": 3533,
  "itan": 3534,
  "\u0451": 3535,
  "ID": 3536,
  "\u2581aut": 3537,
  "\u0432\u0430\u0442\u0438": 3538,
  "\u03c2": 3539,
  "3,": 3540,
  "ges": 3541,
  "\u0561\u0575\u056b\u0576": 3542,
  "\u00e8s": 3543,
  "\u2581\u043f\u0435": 3544,
  "\u1010": 3545,
  "\u2581\u043b\u0435": 3546,
  "bil": 3547,
  "\u043f\u0443": 3548,
  "IC": 3549,
  "kal": 3550,
  "\u2581\u00fc": 3551,
  "\u2581\u0a95\u0ac7": 3552,
  "\u2581babaen": 3553,
  "fin": 3554,
  "amm": 3555,
  "\u258131": 3556,
  "\u2581gy": 3557,
  "\u2581Bi": 3558,
  "\u00c9": 3559,
  "\u2581Dar": 3560,
  "\u2581\u06aa\u0631\u064a": 3561,
  "\u091a\u0940": 3562,
  "assa": 3563,
  "-2": 3564,
  "\u0baa": 3565,
  "\u2581ev": 3566,
  "\u0aa8\u0acb": 3567,
  "\u2581\u043c\u0435\u043d": 3568,
  "\u0928\u0940": 3569,
  "\u2581\u04e9\u0441\u04e9\u043d": 3570,
  "\u2581\u0e81\u0eb2\u0e99": 3571,
  "\u2581\u0633\u0631": 3572,
  "\u2581\u0627\u0644\u0642": 3573,
  "\u0440\u044f": 3574,
  "\u10ea": 3575,
  "\u2581h\u00e0ng": 3576,
  "\u09b8": 3577,
  "\u2581Mon": 3578,
  "\u2581\u0c86": 3579,
  "\u2581kus": 3580,
  "lari": 3581,
  "lin": 3582,
  "\u2581kin": 3583,
  "\u2581Val": 3584,
  "\u0bc7": 3585,
  "\u2581ris": 3586,
  "\u2581fil": 3587,
  "\u2581cor": 3588,
  "abe": 3589,
  "\u0142y": 3590,
  "ave": 3591,
  "\u2581Ni": 3592,
  "ines": 3593,
  "\u2581\u05d6": 3594,
  "\u0eaa": 3595,
  "\u0584": 3596,
  "ank": 3597,
  "\u0ab5": 3598,
  "\u12f0": 3599,
  "\u0d46": 3600,
  "\u2581\u010c": 3601,
  "\u00e6r": 3602,
  "ulan": 3603,
  "rek": 3604,
  "ithe": 3605,
  "\u0d41": 3606,
  "\u3057\u305f": 3607,
  "ular": 3608,
  "\u2581\u2191": 3609,
  "\u2581\u0428": 3610,
  "\u2581m\u00e9i": 3611,
  "\u2581Jo": 3612,
  "\u2581kh": 3613,
  "her": 3614,
  "\u2581bek": 3615,
  "\u2581sama": 3616,
  "\u2581\u0645\u0648": 3617,
  "rac": 3618,
  "it\u00e0": 3619,
  "\u2581Za": 3620,
  "\u2581\u0906\u0923\u093f": 3621,
  "\u2581\u00fat": 3622,
  "\u2581Ke": 3623,
  "\u03b5": 3624,
  "\u2581dob": 3625,
  "\u00fcn": 3626,
  "\u2581\u0d12\u0d30\u0d41": 3627,
  "rav": 3628,
  "\u2581000": 3629,
  "\u2581m\u00e9s": 3630,
  "\u2581\u0938\u0902": 3631,
  "\u2581\u0917": 3632,
  "\u0171": 3633,
  "\u2581NA": 3634,
  "rag": 3635,
  "alit": 3636,
  "uth": 3637,
  "\u0131\u015f": 3638,
  "\ub144": 3639,
  "\u2581\u043c\u044b": 3640,
  "\u0cb8": 3641,
  "\u03bb\u03b1": 3642,
  "\u5e02": 3643,
  "\u2581\u25ba": 3644,
  "\u092f\u093e": 3645,
  "eder": 3646,
  "get": 3647,
  "\u2581\u1780": 3648,
  "\u094d\u092f\u093e": 3649,
  "\u0e19\u0e35\u0e49": 3650,
  "\u0ba9": 3651,
  "\u2581sor": 3652,
  "del": 3653,
  "\u2581\u0993": 3654,
  "\u2581\u0431\u044b": 3655,
  "\u0ca8\u0ccd": 3656,
  "\u043b\u0435\u043a": 3657,
  "\u2581tel": 3658,
  "\u043d\u043e\u0441\u0442": 3659,
  "\uc131": 3660,
  "\u2581Pol": 3661,
  "\u2581beg": 3662,
  "\u10d3": 3663,
  "\u305f": 3664,
  "\u2581\u043c\u043d\u043e\u0433\u043e": 3665,
  "\u2581Ing": 3666,
  "\u2581\u043f\u0440\u0435\u0434": 3667,
  "\u2581Dir": 3668,
  "\u2581\u03a0": 3669,
  "\u1240": 3670,
  "\u2581\u092e\u093e": 3671,
  "IM": 3672,
  "iau": 3673,
  "IK": 3674,
  "EM": 3675,
  "\u2581come": 3676,
  "oga": 3677,
  "\u2581delle": 3678,
  "\u043e\u043d": 3679,
  "\uc804": 3680,
  "\u0a9f": 3681,
  "\u2581vida": 3682,
  "\u0446\u044b": 3683,
  "\u043b\u0430\u043d": 3684,
  "mail": 3685,
  "\u0b38": 3686,
  "\u03c4\u03ac": 3687,
  "\u044e\u0442\u044c": 3688,
  "\u2581Ur": 3689,
  "\u2581\u0bae": 3690,
  "\u2581i\u015f": 3691,
  "\u17b8": 3692,
  "lag": 3693,
  "\u0578\u0582\u0569\u0575\u0578\u0582\u0576": 3694,
  "\u2581bay": 3695,
  "\u2581\u015e": 3696,
  "\u2581\u043a\u0430\u0442\u043e": 3697,
  "\u2581esc": 3698,
  "ations": 3699,
  "\u2581\u0645\u062a": 3700,
  "abil": 3701,
  "\u2581\u043a\u0443": 3702,
  "cher": 3703,
  "\u2581\u0634\u0648\u062f": 3704,
  "\u2581ts": 3705,
  "\u2581sos": 3706,
  "\u0561\u057f": 3707,
  "\u2581\u0420\u0430": 3708,
  "\u0aaa": 3709,
  "\u2581\u0436\u0430": 3710,
  "\u2581New": 3711,
  "\u03b9": 3712,
  "abi": 3713,
  "usu": 3714,
  "\u0442\u0435\u043d": 3715,
  "\u2581c\u0169ng": 3716,
  "\u2581t\u1eeb": 3717,
  "\u2581ide": 3718,
  "\u258170": 3719,
  "\u65f6": 3720,
  "\u2581PR": 3721,
  "\u6240": 3722,
  "\u0d32\u0d4d": 3723,
  "ider": 3724,
  "\u2581\u09ae": 3725,
  "\u2581boleh": 3726,
  "\u0940": 3727,
  "\u2581\u03b5": 3728,
  "ils": 3729,
  "iter": 3730,
  "nek": 3731,
  "inc": 3732,
  "\u2581panag": 3733,
  "\u094d\u092f": 3734,
  "\u2581tudi": 3735,
  "owe": 3736,
  "\u043d\u0438\u043a\u0430": 3737,
  "abo": 3738,
  "nis": 3739,
  "\u0627\u0626": 3740,
  "\u2581mid": 3741,
  "\u03bd\u03b1": 3742,
  "inas": 3743,
  "\u2581\u0627\u0644\u062a\u064a": 3744,
  "\u2581\u0d2a": 3745,
  "iler": 3746,
  "\u2581Het": 3747,
  "\u2581pap": 3748,
  "\u0434\u0435\u043d": 3749,
  "\u6cd5": 3750,
  "\u2581\uc804": 3751,
  "\u2581Tur": 3752,
  "\u2581beste": 3753,
  "\u2581\u0935\u093f": 3754,
  "\u2581\u0647\u0631": 3755,
  "\u0baa\u0bcd": 3756,
  "\u2581\u042d": 3757,
  "nika": 3758,
  "\u0b3e": 3759,
  "inya": 3760,
  "\u2581Mu": 3761,
  "\u2581Tak": 3762,
  "\u2581\u0a85": 3763,
  "\u0d1f\u0d4d\u0d1f": 3764,
  "\u2581yr": 3765,
  "\u0627\u0631\u064a": 3766,
  "\u2581\u05d4\u05d0": 3767,
  "\u0b47": 3768,
  "\u10d0\u10db": 3769,
  "\u56de": 3770,
  "\u0e08\u0e30": 3771,
  "\u10e3\u10da": 3772,
  "\u2581door": 3773,
  "\u2581cont": 3774,
  "\u2581nhi\u1ec1u": 3775,
  "\u2581\u0936": 3776,
  "\u2581sul": 3777,
  "\u2581uns": 3778,
  "\u2581\u0cac": 3779,
  "\u17a2": 3780,
  "\u2581\u09aa": 3781,
  "\u0627\u0633": 3782,
  "ace": 3783,
  "\u2581uy": 3784,
  "nog": 3785,
  "\u2581Ek": 3786,
  "\u2581jou": 3787,
  "pos": 3788,
  "\u2581\u0435\u0433\u043e": 3789,
  "\u0b95\u0bcd\u0b95\u0bc1": 3790,
  "\u0e07": 3791,
  "\u2581Ca": 3792,
  "\u2581cer": 3793,
  "ezi": 3794,
  "\u0430\u0442": 3795,
  "\u2581lei": 3796,
  "\u2581\u06cc\u06c1": 3797,
  "\u2581\u0445\u043e": 3798,
  "iske": 3799,
  "\u2581\u056f": 3800,
  "\u6211\u4eec": 3801,
  "\u2581\u0431\u0430\u0439\u043d\u0430": 3802,
  "\u2581maj": 3803,
  "\u2581\u0d35": 3804,
  "\u05e5": 3805,
  "\u5b66": 3806,
  "\u0b19\u0b4d\u0b15": 3807,
  "\u03b5\u03c2": 3808,
  "\u2581\u05d1\u05d0": 3809,
  "\u2581\u0924\u094b": 3810,
  "ov\u00e9": 3811,
  "\u093f": 3812,
  "\u2581\u0646\u06c1\u06cc\u06ba": 3813,
  "\u05d5\u05d1": 3814,
  "\u2581nar": 3815,
  "\uc544": 3816,
  "\u2581v\u00e0o": 3817,
  "\u2581l\u1ea1i": 3818,
  "\u2581quan": 3819,
  "uku": 3820,
  "\u00e2": 3821,
  "\u0b32": 3822,
  "\u2581\u015f": 3823,
  "\u2581yap": 3824,
  "\u2581lain": 3825,
  "\u2581ven": 3826,
  "elu": 3827,
  "\u2581s\u0105": 3828,
  "\u134d": 3829,
  "\u0930\u094d": 3830,
  "\u2581\u067f\u064a": 3831,
  "\u0db4": 3832,
  "\u2581bab": 3833,
  "45": 3834,
  "\u2581\u0544": 3835,
  "\u044a": 3836,
  "\ub4dc": 3837,
  "uks": 3838,
  "\u062f\u0647": 3839,
  "\u0441\u043d\u043e": 3840,
  "\u2581satu": 3841,
  "\u0442\u043e\u0440": 3842,
  "\u05e3": 3843,
  "\u0928\u094d": 3844,
  "rov": 3845,
  "\u2581Ol": 3846,
  "ikk": 3847,
  "emos": 3848,
  "\u10e0\u10d8": 3849,
  "\u2581\u0440\u0443": 3850,
  "\u056b\u0581": 3851,
  "\u2581mam": 3852,
  "\u2581\u1794": 3853,
  "\u0161t": 3854,
  "\u00e1z": 3855,
  "\u00f2r": 3856,
  "\u0441\u0442\u044c": 3857,
  "\u0259t": 3858,
  "\u2581Attribution": 3859,
  "\u0565\u0576": 3860,
  "\u2581ret": 3861,
  "\u2581pad": 3862,
  "\u2581todo": 3863,
  "\u062a\u06cc": 3864,
  "\u2581lui": 3865,
  "gal": 3866,
  "\u2581daha": 3867,
  "\u2581sang": 3868,
  "\u0131n\u0131n": 3869,
  "\u2581social": 3870,
  "\u2581\u0b2c": 3871,
  "\u0916": 3872,
  "\u2581\u12a5\u1293": 3873,
  "\u2581\u1208": 3874,
  "\u09c1": 3875,
  "adda": 3876,
  "\u30f3": 3877,
  "\u0b40": 3878,
  "\u2581Sz": 3879,
  "\u2581ach": 3880,
  "ist\u00e4": 3881,
  "nt": 3882,
  "lar\u0131n": 3883,
  "\u0b41": 3884,
  "\u2581\u10e1\u10d0": 3885,
  "\u0646\u06cc": 3886,
  "\u2581nh\u00e0": 3887,
  "\u044d\u043d": 3888,
  "\uc18c": 3889,
  "\u2581\u0a8f": 3890,
  "\u0cb2\u0ccd": 3891,
  "ves": 3892,
  "rad": 3893,
  "\u0ca4": 3894,
  "\u2581ginn": 3895,
  "\u2581ora": 3896,
  "\u2581Mag": 3897,
  "iran": 3898,
  "\u2581\u05dc\u05d9": 3899,
  "\u2581Gu": 3900,
  "\u0444\u0438": 3901,
  "yen": 3902,
  "ningen": 3903,
  "\u0e34": 3904,
  "\u2581\u091a": 3905,
  "\u10d1": 3906,
  "\u2581eb": 3907,
  "erg": 3908,
  "\u2581\u0431\u0435\u0440": 3909,
  "\u2581tr\u00ean": 3910,
  "\u0dcf": 3911,
  "ender": 3912,
  "\u0aa4\u0abe": 3913,
  "\u2581\u0633\u0631\u0647": 3914,
  "\u043d\u043e\u0441\u0442\u0438": 3915,
  "\u00e7\u00f5es": 3916,
  "\u1233": 3917,
  "\u2581\u043f\u0440\u044b": 3918,
  "\u0148": 3919,
  "\u2581\u041c\u043e": 3920,
  "kk": 3921,
  "\u2581\u03b1\u03bd\u03b1": 3922,
  "\u2581\u0d15": 3923,
  "iji": 3924,
  "\u09b2": 3925,
  "IR": 3926,
  "\u2581bur": 3927,
  "\u304d": 3928,
  "ild": 3929,
  "\u2581Ra": 3930,
  "\u043d\u0438\u0438": 3931,
  "\u2581sok": 3932,
  "\u2581hem": 3933,
  "\u05e9\u05d9": 3934,
  "\u2581\u062f\u0648": 3935,
  "\u2581nek": 3936,
  "\u0623": 3937,
  "\u2581yi": 3938,
  "cy": 3939,
  "\u043e\u0442": 3940,
  "gel": 3941,
  "\u1325": 3942,
  "\u130d": 3943,
  "\u2581Ho": 3944,
  "\u1218": 3945,
  "\u2581pop": 3946,
  "\u00fas": 3947,
  "\u0640": 3948,
  "\u2581mao": 3949,
  "\u2581nat": 3950,
  "atti": 3951,
  "\u2581And": 3952,
  "\u258145": 3953,
  "\u2581nur": 3954,
  "\u2581\u0637": 3955,
  "edd": 3956,
  "inti": 3957,
  "\u2581\u05d2\u05e2": 3958,
  "\u0935\u0930": 3959,
  "\u00e1v": 3960,
  "oi": 3961,
  "\u2581\u0d92": 3962,
  "\uc0c1": 3963,
  "tag": 3964,
  "tur": 3965,
  "\u2581mei": 3966,
  "\u05de\u05d4": 3967,
  "\u2581\u120b\u12ed": 3968,
  "\u2581\u0909": 3969,
  "\u2581\u043f\u043b\u0430": 3970,
  "\u770b": 3971,
  "\u2581hand": 3972,
  "\u00fck": 3973,
  "\u2581\u0447": 3974,
  "\u2581\u0644\u0644": 3975,
  "\u0433\u0438\u0439\u043d": 3976,
  "\u540d": 3977,
  "\u88ab": 3978,
  "inger": 3979,
  "\u2581\u0a38": 3980,
  "\u0433\u04af\u0439": 3981,
  "\u2581\u1793\u17b7\u1784": 3982,
  "\u2581\u00e7": 3983,
  "\u2581nh\u1ea5t": 3984,
  "\u09a4": 3985,
  "\u2581We": 3986,
  "\u0432\u0435\u043d": 3987,
  "\u2581hel": 3988,
  "\u10d5\u10d8": 3989,
  "\u2581\u0438\u043c": 3990,
  "\u2581int": 3991,
  "\u0bc1\u0bae\u0bcd": 3992,
  "iner": 3993,
  "ely": 3994,
  "\u2581\u05d5\u05d4": 3995,
  "\u2581Bir": 3996,
  "\u6642": 3997,
  "\u0432\u0430\u043d\u043d\u044f": 3998,
  "\u0441\u043a\u0435": 3999,
  "\u2581Kan": 4000,
  "yg": 4001,
  "\u056f": 4002,
  "\u2581\u0433\u043e\u0434\u0430": 4003,
  "\u2581menjadi": 4004,
  "\u2581port": 4005,
  "\u1038": 4006,
  "\u2581ngok": 4007,
  "\u2581\u05d0\u05d9": 4008,
  "\u2581cr": 4009,
  "ych": 4010,
  "enden": 4011,
  "\u2581part": 4012,
  "\u03bc\u03b5": 4013,
  "\u2581Ser": 4014,
  "\u0a9c": 4015,
  "\u2581anak": 4016,
  "\u2581\u05d4\u05ea": 4017,
  "jat": 4018,
  "\u2581Kas": 4019,
  "\u2581kop": 4020,
  "mak": 4021,
  "\u043f\u0440\u043e": 4022,
  "\u2581\u03c0": 4023,
  "\u2581ef": 4024,
  "\u0576\u0565\u0580": 4025,
  "\u2581Ben": 4026,
  "\u057d": 4027,
  "esk": 4028,
  "\u2581wird": 4029,
  "\u0688": 4030,
  "\u0e01\u0e31\u0e1a": 4031,
  "iks": 4032,
  "\u2581Sen": 4033,
  "\u2581\u043a\u0430\u043a\u043e": 4034,
  "\u5165": 4035,
  "\u2581lagi": 4036,
  "\u1230": 4037,
  "\u10d8\u10d7": 4038,
  "\u30eb": 4039,
  "urt": 4040,
  "\u30b9": 4041,
  "inis": 4042,
  "\u2581Para": 4043,
  "\ub77c": 4044,
  "\u7269": 4045,
  "\u2581\u03b4\u03b9\u03b1": 4046,
  "ekt": 4047,
  "\u2581sont": 4048,
  "\u91d1": 4049,
  "tid": 4050,
  "\u2581Das": 4051,
  "\u0447\u044b": 4052,
  "nin": 4053,
  "\u2581It": 4054,
  "\u2581\u05e2\u05dd": 4055,
  "\u043d\u0443\u044e": 4056,
  "\u043c\u0430\u043d": 4057,
  "\u2581\u06a9\u06cc\u0627": 4058,
  "\u201c.": 4059,
  "\u09be\u09af\u09bc": 4060,
  "\u1015": 4061,
  "\u4e00\u4e2a": 4062,
  "\u2581300": 4063,
  "sel": 4064,
  "\u012bbas": 4065,
  "\u0915\u0930": 4066,
  "tan": 4067,
  "\u10e2\u10d8": 4068,
  "ots": 4069,
  "igi": 4070,
  "\u1798": 4071,
  "\u2581SA": 4072,
  "\u0d7b": 4073,
  "imit": 4074,
  "\u0cc7": 4075,
  "\u2581apa": 4076,
  "AP": 4077,
  "fo": 4078,
  "\u10dd\u10dc": 4079,
  "\u258110.": 4080,
  "\u0c97": 4081,
  "\u2581kako": 4082,
  "\u2581Bl": 4083,
  "eto": 4084,
  "\u0d33": 4085,
  "ties": 4086,
  "\u2581\u0540": 4087,
  "\u2581sum": 4088,
  "\u10da\u10d8": 4089,
  "\u0a4b": 4090,
  "enie": 4091,
  "\u1245": 4092,
  "gt": 4093,
  "\u2581yer": 4094,
  "\u0432\u0435\u0440": 4095,
  "\u53ef": 4096,
  "\u2581\u0a28\u0a47": 4097,
  "\u306b\u306f": 4098,
  "\u04d9\u043d": 4099,
  "alu": 4100,
  "\u2581einen": 4101,
  "\u2581\u0648\u062a": 4102,
  "alin": 4103,
  "\u05e1\u05d8": 4104,
  "\u2581\u0939\u0940": 4105,
  "\u00e9ho": 4106,
  "\u5916": 4107,
  "4,": 4108,
  "\u10d3\u10d8": 4109,
  "ute": 4110,
  "\u2581pok": 4111,
  "\u2581\u043d\u0430\u0434": 4112,
  "atur": 4113,
  "\u2581nke": 4114,
  "ies": 4115,
  "\u0645\u0627\u0646": 4116,
  "\u2581hai": 4117,
  "\u2581\u091c\u093e": 4118,
  "\u0e08": 4119,
  "\u30fc": 4120,
  "\u2581m\u00e0": 4121,
  "\u2581cons": 4122,
  "\u4f46": 4123,
  "\u2581mad": 4124,
  "aron": 4125,
  "\u2581\u05e8": 4126,
  "\u0dd9": 4127,
  "\u2581maka": 4128,
  "OL": 4129,
  "\u2581\u0e2a": 4130,
  "\u2581Afrika": 4131,
  "\u258190": 4132,
  "\u65b9": 4133,
  "wat": 4134,
  "pon": 4135,
  "\u2581\u0627\u0644\u0646": 4136,
  "\u0442\u043e\u043c": 4137,
  "vin": 4138,
  "\u2581\u1019": 4139,
  "\u2581kir": 4140,
  "\u2581qo": 4141,
  "\u2581anche": 4142,
  "\u2581ll": 4143,
  "\u2581\u0420": 4144,
  "anto": 4145,
  "\u2581Pl": 4146,
  "\u2581p\u0159": 4147,
  "\u90e8": 4148,
  "\u70b9": 4149,
  "nas": 4150,
  "\u0436\u0443": 4151,
  "\u05d9\u05e8": 4152,
  "\u0142o": 4153,
  "\u2581\u0442\u043e\u0432\u0430": 4154,
  "\u2581b\u1ecb": 4155,
  "\u057f": 4156,
  "fl": 4157,
  "\u17d4": 4158,
  "\ubd80": 4159,
  "idos": 4160,
  "\u2581\u092d": 4161,
  "\u10dc": 4162,
  "\u0000": 4163,
  "\u013e": 4164,
  "\u9762": 4165,
  "\u2581\u0938\u093e": 4166,
  "\u2581\u0b87": 4167,
  "\ud558\uace0": 4168,
  "\u0161e": 4169,
  "\u0caf": 4170,
  "UM": 4171,
  "nic": 4172,
  "\u2581condicions": 4173,
  "\u2581s\u00eb": 4174,
  "\u2581ara": 4175,
  "\u2581\u0a95": 4176,
  "wal": 4177,
  "\u2581(3": 4178,
  "\u2581d\u1ee5ng": 4179,
  "\u2581ges": 4180,
  "\u2581kut": 4181,
  "OM": 4182,
  "\u2581test": 4183,
  "\u0454\u0442\u044c\u0441\u044f": 4184,
  "\u0627\u0646\u0647": 4185,
  "\u10de": 4186,
  "\u0442\u044b\u043d": 4187,
  "\u0baa\u0bcd\u0baa": 4188,
  "adores": 4189,
  "\u2581lag": 4190,
  "\u0a47": 4191,
  "\u2581\u043a\u043e\u0458\u0438": 4192,
  "\u2581nous": 4193,
  "\u0631\u062a": 4194,
  "\u00e2n": 4195,
  "\u0647\u064a": 4196,
  "\u2581dil": 4197,
  "\u062c\u064a": 4198,
  "ick": 4199,
  "\u2581\u00d6": 4200,
  "99": 4201,
  "\u2581\u0ba4": 4202,
  "\u05d1\u05e8": 4203,
  "\u53bb": 4204,
  "\u3066": 4205,
  "pet": 4206,
  "\u2581todos": 4207,
  "etu": 4208,
  "\u057e\u0565\u056c": 4209,
  "\u2581mul": 4210,
  "\u30fb": 4211,
  "\u2581k\u0101": 4212,
  "\u0437\u0456": 4213,
  "amat": 4214,
  "\u0e81": 4215,
  "\u25812,": 4216,
  "\u064a\u0645": 4217,
  "\u2581\uc8fc": 4218,
  "\u0d2a": 4219,
  "\u540e": 4220,
  "\u2581nab": 4221,
  "ci\u00f3ns": 4222,
  "\u2581h\u1ecdc": 4223,
  "\u0648\u0646\u0647": 4224,
  "\u10e3\u10e0": 4225,
  "ange": 4226,
  "\u2581\u05d6\u05d4": 4227,
  "\u03c1\u03ac": 4228,
  "\u2581\u00dc": 4229,
  "\u1015\u102b": 4230,
  "\u2581selv": 4231,
  "\u0a1c": 4232,
  "\u2581lab": 4233,
  "\u2581are": 4234,
  "su": 4235,
  "\u9053": 4236,
  "\u0926\u093e": 4237,
  "\u0441\u0442\u044b": 4238,
  "\u2581\u03cc\u03c4\u03b9": 4239,
  "\u0cb0\u0ccd": 4240,
  "dy": 4241,
  "\u2581sebagai": 4242,
  "\u2581tersebut": 4243,
  "\u2581ont": 4244,
  "uw": 4245,
  "\u1271": 4246,
  "uran": 4247,
  "\u2581\u12e8\u1270": 4248,
  "onn": 4249,
  "\u2581Reg": 4250,
  "\u2581Mae": 4251,
  "\u2581d\u0259": 4252,
  "\u2581\u043f\u0456\u0434": 4253,
  "?\u201d": 4254,
  "\u25819.": 4255,
  "\u2581aku": 4256,
  "\u2581\u20ac": 4257,
  "ering": 4258,
  "\u2581tab": 4259,
  "\u2581\u0634\u062f": 4260,
  "\u03c3\u03b5": 4261,
  "\u2581ekki": 4262,
  "\u2581\u0447\u0438": 4263,
  "ungs": 4264,
  "\u2581pom": 4265,
  "heid": 4266,
  "unn": 4267,
  "\u2581\u0a2c": 4268,
  "\u2581ru": 4269,
  "\u2581\u0111\u1ed9ng": 4270,
  "lech": 4271,
  "\u015b": 4272,
  "\u2581\u0d35\u0d3f": 4273,
  "eno": 4274,
  "\u0d3f": 4275,
  "\u2581dik": 4276,
  "\u043d\u0435\u043d": 4277,
  "ukan": 4278,
  "\u03c3\u03b7\u03c2": 4279,
  "\u2581lig": 4280,
  "\u2581\u05e6": 4281,
  "2018": 4282,
  "\u2581Home": 4283,
  "utu": 4284,
  "\ud2b8": 4285,
  "\u0d23": 4286,
  "\u2581Lu": 4287,
  "\u2581Tu": 4288,
  "\u2581\u092a\u0928\u093f": 4289,
  "\u2581sim": 4290,
  "\u2581\u0434\u0435\u043a\u0430": 4291,
  "\u2581sun": 4292,
  "\u2581\u092a\u093e": 4293,
  "\u2581prin": 4294,
  "\u2581imp": 4295,
  "\u0cc2": 4296,
  "23": 4297,
  "\u25813,": 4298,
  "\u00f2s": 4299,
  "\u0e02": 4300,
  "\u0e30": 4301,
  "kul": 4302,
  "\u5f88": 4303,
  "\u2581meer": 4304,
  "\u80fd": 4305,
  "aden": 4306,
  "\u2581m\u00e5": 4307,
  "\u5c06": 4308,
  "\u53ef\u4ee5": 4309,
  "\u102c": 4310,
  "\u2581fal": 4311,
  "\u2581naar": 4312,
  "\u2581Az\u0259rbaycan": 4313,
  "UT": 4314,
  "\u2581Des": 4315,
  "\u0432\u0430\u043d": 4316,
  "\u0561\u057e": 4317,
  "kor": 4318,
  "\u2581s\u1ef1": 4319,
  "\u0a1f": 4320,
  "\u2581Ce": 4321,
  "\u2581did": 4322,
  "\u2581sistem": 4323,
  "idan": 4324,
  "\u2581\u0b38": 4325,
  "\u4e4b": 4326,
  "\u2581sit": 4327,
  "\u03bd\u03b7": 4328,
  "\u09a6": 4329,
  "nym": 4330,
  "\u2581yra": 4331,
  "\u1270": 4332,
  "\u2581\u0111\u1ea7u": 4333,
  "\u2581dib": 4334,
  "\u60f3": 4335,
  "\u0d9c": 4336,
  "\u0e44\u0e21\u0e48": 4337,
  "\u2581\u0111\u00f3": 4338,
  "ham": 4339,
  "\u10d5\u10d0": 4340,
  "saysay": 4341,
  "\u2581bilan": 4342,
  "\u2581sudah": 4343,
  "\u2581prim": 4344,
  "\u2581lik": 4345,
  "\u2581\u10d1": 4346,
  "\u2581\u062f\u064a": 4347,
  "\u06be": 4348,
  "5,": 4349,
  "agan": 4350,
  "dag": 4351,
  "\u2581$": 4352,
  "\u0432\u0430\u043b\u0438": 4353,
  "8,": 4354,
  "\u2581\u0431\u043e\u043b": 4355,
  "UR": 4356,
  "\u0131n\u0131": 4357,
  "\u0e35": 4358,
  "\u10dd\u10e1": 4359,
  "\u2581fram": 4360,
  "\u2581kasarangang": 4361,
  "\u2581oraz": 4362,
  "\u2581poz": 4363,
  "ikt": 4364,
  "\u0e0b": 4365,
  "\u10e3\u10e0\u10d8": 4366,
  "\u0907": 4367,
  "\u03c1\u03b7": 4368,
  "\u2581inform": 4369,
  "\u2581teh": 4370,
  "lem": 4371,
  "\u0447\u043d\u0430": 4372,
  "\u09cb": 4373,
  "\u2581\u0cb9": 4374,
  "\u2581\u05d0\u05d5": 4375,
  "\u2581ble": 4376,
  "\u2581hvor": 4377,
  "\u0b9a": 4378,
  "\u1793": 4379,
  "\u049b": 4380,
  "\u0a26": 4381,
  "\u0499": 4382,
  "\u2581div": 4383,
  "\u1eb9": 4384,
  "\u00f3k": 4385,
  "\u2581\u0928\u0939\u0940\u0902": 4386,
  "\u2581isang": 4387,
  "ct": 4388,
  "\u2581\u039a": 4389,
  "\u2581hari": 4390,
  "\u104a": 4391,
  "mel": 4392,
  "\u2581public": 4393,
  "\u0c97\u0cb3\u0cc1": 4394,
  "isha": 4395,
  "\u4e2d\u56fd": 4396,
  "\u2581ras": 4397,
  "\u2581Ph": 4398,
  "AH": 4399,
  "\u0448\u0443": 4400,
  "\u4e8e": 4401,
  "\u2581wel": 4402,
  "\u0448\u0456": 4403,
  "\u0144": 4404,
  "7,": 4405,
  "ty": 4406,
  "\u0627\u06cc\u06cc": 4407,
  "\u2581gra": 4408,
  "\u0d24\u0d4d\u0d24": 4409,
  "\u2581\u0b13": 4410,
  "\u0aa5\u0ac0": 4411,
  "\u2581g\u00fcn": 4412,
  "\ud560": 4413,
  "\u2581tag": 4414,
  "\u2581autor": 4415,
  "id\u00e1": 4416,
  "TE": 4417,
  "\u660e": 4418,
  "fs": 4419,
  "\u0dba\u0dda": 4420,
  "vol": 4421,
  "\u0627\u0647": 4422,
  "\u2581\u062f\u0627": 4423,
  "\u00e1d": 4424,
  "\u0b33": 4425,
  "\u2581sve": 4426,
  "\u2581\u09b9": 4427,
  "form": 4428,
  "\u2581\u0111i": 4429,
  "\u0253e": 4430,
  "\u2581contra": 4431,
  "\u2581\u0647\u0646": 4432,
  "\u0ccb": 4433,
  "\u2581Sam": 4434,
  "\u2581\u0161to": 4435,
  "22": 4436,
  "\u0a2a": 4437,
  "\u0434\u043d\u043e": 4438,
  "\u0578\u0572": 4439,
  "\ub098": 4440,
  "\u2581dur": 4441,
  "\u0a23": 4442,
  "-3": 4443,
  "\u2581\u043c\u043e\u0436\u043d\u043e": 4444,
  "\u04e9": 4445,
  "\u2581\u0baa": 4446,
  "\u0b2c": 4447,
  "\u25812019": 4448,
  "fic": 4449,
  "ling": 4450,
  "\u0d40": 4451,
  "6,": 4452,
  "\u2581\u04d9": 4453,
  "\u10d0\u10d5": 4454,
  "\u2581tsy": 4455,
  "\u4e3b": 4456,
  "\u2581kui": 4457,
  "jal": 4458,
  "\u03b9\u03ba\u03ae": 4459,
  "\u0d42": 4460,
  "\u2581maysa": 4461,
  "\u0ba8\u0bcd\u0ba4": 4462,
  "\uc81c": 4463,
  "\u0ca6\u0cb2\u0ccd\u0cb2\u0cbf": 4464,
  "\u2581h\u00e4r": 4465,
  "\u0dc4": 4466,
  "\uad6c": 4467,
  "\u2581bila": 4468,
  "omo": 4469,
  "\u12f3": 4470,
  "\u0576\u0565\u0580\u0568": 4471,
  "\u2581\u0422\u043e": 4472,
  "\u2581Ap": 4473,
  "\u0645\u06cc": 4474,
  "\u2581Est": 4475,
  "\u0e46": 4476,
  "\u2581Mir": 4477,
  "\u2581\u0161e": 4478,
  "\u05d0\u05b8": 4479,
  "EC": 4480,
  "\u2581Ex": 4481,
  "3)": 4482,
  "\u2581\u0436": 4483,
  "9,": 4484,
  "\u2581blir": 4485,
  "\u0442\u043d\u043e": 4486,
  "\u2581bul": 4487,
  "\u2581s\u00ed": 4488,
  "uch": 4489,
  "\u2581bara": 4490,
  "\u2581\u0627\u0644\u0625": 4491,
  "\u0432\u044f": 4492,
  "\u6c34": 4493,
  "\u0442\u0441\u044f": 4494,
  "\u130b": 4495,
  "\u0440\u0442": 4496,
  "\ub9cc": 4497,
  "\u03af\u03b1\u03c2": 4498,
  "omi": 4499,
  "enz": 4500,
  "\u0d2a\u0d4d\u0d2a": 4501,
  "\u2581cur": 4502,
  "\u6210": 4503,
  "\u0e47": 4504,
  "\u2581bed": 4505,
  "\u5f53": 4506,
  "\u2581\u05d4\u05e9": 4507,
  "\u2581\u0456\u043d": 4508,
  "\u2581\u12a5": 4509,
  "\u0dd3": 4510,
  "\u0caa": 4511,
  "ijo": 4512,
  "elor": 4513,
  "\u2581\u0441\u0432\u0435": 4514,
  "\u00f3t": 4515,
  "\u05e0\u05d8": 4516,
  "\u2581mobil": 4517,
  "sm": 4518,
  "\u2581nje": 4519,
  "\u0441\u0442\u0440\u0430": 4520,
  "\u2581yok": 4521,
  "\u2581ch\u1ec9": 4522,
  "\u2581\u043f\u0435\u0440": 4523,
  "\u0627\u0621": 4524,
  "\u2581Mer": 4525,
  "\u0442\u0435\u043b\u044c": 4526,
  "\ud558": 4527,
  "ics": 4528,
  "ellen": 4529,
  "\u2581pam": 4530,
  "\u09bf\u0995": 4531,
  "\u05e1\u05d9": 4532,
  "\u2581Ki": 4533,
  "\u2581vas": 4534,
  "\u0578\u0582": 4535,
  "\u2581\u0648\u0627": 4536,
  "\u2581hi\u1ec7n": 4537,
  "\u0e01\u0e31\u0e19": 4538,
  "ivo": 4539,
  "\u2581Tha": 4540,
  "\u2581produk": 4541,
  "\u2581olarak": 4542,
  "\u2581\u017d": 4543,
  "\u2581ar\u012b": 4544,
  "\u2581Jag": 4545,
  "\u09af\u09bc": 4546,
  "\u2581word": 4547,
  "tat": 4548,
  "\u2581\u0dc0": 4549,
  "\u00fdm": 4550,
  "nar": 4551,
  "ativ": 4552,
  "AG": 4553,
  "unta": 4554,
  "\u5408": 4555,
  "esto": 4556,
  "\u2581rel": 4557,
  "\u2581\u0414\u0435": 4558,
  "\u0646\u0647": 4559,
  "\u2581art": 4560,
  "\u00edr": 4561,
  "\u10d4\u10d7": 4562,
  "\u2581\u00e7ok": 4563,
  "26": 4564,
  "\u2581bag": 4565,
  "\u00e5r": 4566,
  "\u3063\u305f": 4567,
  "\u1005": 4568,
  "\u2581Ro": 4569,
  "\u56fd": 4570,
  "\u2581ph\u1ea3i": 4571,
  "\u2581Cor": 4572,
  "\u0aa6": 4573,
  "\u2581ano": 4574,
  "\u0458\u0438": 4575,
  "\u2581\u041b": 4576,
  "\u0dd2": 4577,
  "\u062a\u0631": 4578,
  "rt": 4579,
  "r\u00e1": 4580,
  "\u2581\u00fc\u00e7\u00fcn": 4581,
  "uts": 4582,
  "\u2581Og": 4583,
  "\u2581banyak": 4584,
  "aji": 4585,
  "\u0e14\u0e35": 4586,
  "\u0935\u093f": 4587,
  "\u2581loc": 4588,
  "\u2581n\u0103m": 4589,
  "\u0639\u0629": 4590,
  "\u2581Internet": 4591,
  "\u2581\u0ca8": 4592,
  "\u2581pros": 4593,
  "\u2581\u044f\u043a\u0456": 4594,
  "\u2581\u0431\u0443": 4595,
  "\u0e94": 4596,
  "\u2581\u0434\u0443": 4597,
  "\u2581tut": 4598,
  "\u0d7d": 4599,
  "\u2581log": 4600,
  "erv": 4601,
  "\u2581\uac00": 4602,
  "\u0161\u00ed": 4603,
  "\u2581vari": 4604,
  "ayan": 4605,
  "\u0621": 4606,
  "\u2581YA": 4607,
  "\u2581cara": 4608,
  "\u0b24": 4609,
  "\u2581\u03bc\u03b1\u03c2": 4610,
  "anc": 4611,
  "\u0447\u043a\u0438": 4612,
  "encia": 4613,
  "\u2581\u0430\u043a": 4614,
  "\u2581vi\u1ec7c": 4615,
  "\u2581\u03ba\u03b1": 4616,
  "\u2581ren": 4617,
  "rar": 4618,
  ".....": 4619,
  "\u0433\u0440\u0430": 4620,
  "\u2581sempre": 4621,
  "itz": 4622,
  "\u05d5\u05dd": 4623,
  "\u0b26": 4624,
  "\u2581\u0d07": 4625,
  "\u2581\u0a05\u0a24\u0a47": 4626,
  "\u2581tid": 4627,
  "\u0432\u0430\u045a\u0435": 4628,
  "\u0431\u0440\u0430": 4629,
  "\u0a82": 4630,
  "eny": 4631,
  "\u2581not": 4632,
  "\u0430\u0439": 4633,
  "\u2581k\u00e4": 4634,
  "tif": 4635,
  "\u0b3f": 4636,
  "\u6700": 4637,
  "\u2581\u0433\u043e\u0434\u0438\u043d\u0430": 4638,
  "\u0574": 4639,
  "far": 4640,
  "\u2581\u0633\u064a": 4641,
  "weni": 4642,
  "\u2581ina": 4643,
  "\u2581bagi": 4644,
  "\u2581\u0631\u0648\u0632": 4645,
  "iser": 4646,
  "\u2581th\u00e0nh": 4647,
  "\u2581\u0301": 4648,
  "\u2581dim": 4649,
  "\u2581casa": 4650,
  "ov\u00e1": 4651,
  "nia": 4652,
  "\u2581haben": 4653,
  "\u0219": 4654,
  "\u2581oma": 4655,
  "\u2581m\u00e1is": 4656,
  "\u2581dok": 4657,
  "\u0631\u0628": 4658,
  "\u2581vad": 4659,
  "\u2581\u039c": 4660,
  "\u0b3e\u0b30": 4661,
  "\u2581mun": 4662,
  "\u2581gj": 4663,
  "berg": 4664,
  "\u043b\u0430\u0440\u044b": 4665,
  "\u2581tor": 4666,
  "\u2581\u0b9a": 4667,
  "\u0b4b": 4668,
  "\u06cc\u0627": 4669,
  "\u1308": 4670,
  "\u0cb9": 4671,
  "\u2581memb": 4672,
  "\u2581dip": 4673,
  "\u10e8": 4674,
  "\u2581\u0442\u043e\u043b\u044c\u043a\u043e": 4675,
  "\u2581pie": 4676,
  "\u2581\u03a4": 4677,
  "\u03bf\u03cd": 4678,
  "\u2581poder": 4679,
  "ining": 4680,
  "\u2581Online": 4681,
  "\u044d\u044d": 4682,
  "inte": 4683,
  "itra": 4684,
  "\u0bbf": 4685,
  "\u2581\u0644\u0627\u0621": 4686,
  "\u2581Va": 4687,
  "oria": 4688,
  "\u5ea6": 4689,
  "\u0acb": 4690,
  "\u2581land": 4691,
  "\u2581\u0a15": 4692,
  "\u2581\u067e\u06cc": 4693,
  "\u2581bod": 4694,
  "\u2581\u03b2": 4695,
  "\u0440\u0438\u0442\u0435": 4696,
  "\u0a38\u0a3c": 4697,
  "\u2581\u0645\u0627\u0646": 4698,
  "\u0432\u043d\u043e": 4699,
  "\u0628\u064a": 4700,
  "\u2581aby": 4701,
  "\u2581dol": 4702,
  "\u2581pon": 4703,
  "\u2581roku": 4704,
  "\u2581\u0647\u06aa": 4705,
  "\u1362": 4706,
  "\u2581tao": 4707,
  "\u2581sn": 4708,
  "\u1000\u103a": 4709,
  "\u09aa": 4710,
  "\u2581Fa": 4711,
  "\u043d\u0430\u0439": 4712,
  "\u25812007": 4713,
  "\u1004\u1039": 4714,
  "\u2581\u05d5\u05d5\u05d9": 4715,
  "\u044d\u043b": 4716,
  "\u0ca1": 4717,
  "\u2581\u0e2d": 4718,
  "can": 4719,
  "\u2581ans": 4720,
  "lov": 4721,
  "\u2581fo": 4722,
  "\u2581\u03ad": 4723,
  "\u2581Col": 4724,
  "\u2581t\u00f4i": 4725,
  "\u2581\u00e2": 4726,
  "\u12ce\u127d": 4727,
  "\u03c9\u03bd": 4728,
  "\u2581\u0d24": 4729,
  "\u2581\u0436\u0438": 4730,
  "\u2581ba\u015f": 4731,
  "\u0648\u0646\u0648": 4732,
  "\u305d\u306e": 4733,
  "\u2581hon": 4734,
  "\u2581\u0570": 4735,
  "\u2581oss": 4736,
  ".0": 4737,
  "\u0dc0\u0dcf": 4738,
  "\u05e4\u05d9": 4739,
  "\u2581mund": 4740,
  "\u2581ig": 4741,
  "\u2581\u0627\u0644\u0641": 4742,
  "\u2581\u10d0\u10db": 4743,
  "\u2581kana": 4744,
  "\u2581\u067e\u0627\u06a9\u0633\u062a\u0627\u0646": 4745,
  "\u10d8\u10d0": 4746,
  "\u2581kre": 4747,
  "pre": 4748,
  "\u10d4\u10d1": 4749,
  "\u0938\u094d": 4750,
  "28": 4751,
  "\u2581uku": 4752,
  "\u2581\u101e": 4753,
  "\u2581meny": 4754,
  "uns": 4755,
  "\u03b9\u03ba\u03cc": 4756,
  "\u2581\u0b06": 4757,
  "\u2581ens": 4758,
  "\u0e39": 4759,
  "ance": 4760,
  "\u2581\u0e97\u0eb5\u0ec8": 4761,
  "\u012bt": 4762,
  "\u2581Ik": 4763,
  "eten": 4764,
  "\uba74": 4765,
  "umb": 4766,
  "\u0aa3": 4767,
  "lim": 4768,
  "\u062a\u064a": 4769,
  "\u2581\u0627\u0644\u0643": 4770,
  "anu": 4771,
  "\u2581andre": 4772,
  "\u2581pris": 4773,
  "\u2581foto": 4774,
  "\u00e9g": 4775,
  "\u00fcm": 4776,
  "\u2581\u06c1\u0648": 4777,
  "\u2581\ub300": 4778,
  "\u05d5\u05d3": 4779,
  "\u2581\u0b15": 4780,
  "\u2581s\u1ed1": 4781,
  "\u2581\u043a\u043e\u043d": 4782,
  "\u2581saan": 4783,
  "\u2581edhe": 4784,
  "\u0441\u043d\u0430": 4785,
  "\u0648\u0628": 4786,
  "\u0cb8\u0ccd": 4787,
  "\u2581problem": 4788,
  "\u258133": 4789,
  "\u2581helt": 4790,
  "\u00f0i": 4791,
  "\u2581tahun": 4792,
  "\u043f\u0456": 4793,
  "\u0d35\u0d3f": 4794,
  "\u03c0\u03bf": 4795,
  "\u2581IN": 4796,
  "\u2581Bal": 4797,
  "\u1780\u17b6\u179a": 4798,
  "\u2581pass": 4799,
  "\ud654": 4800,
  "\u2581tres": 4801,
  "\u0447\u0435\u043d": 4802,
  "\u010dno": 4803,
  "mal": 4804,
  "ones": 4805,
  "\ud68c": 4806,
  "ska": 4807,
  "\u0b95\u0bcd": 4808,
  "\u2581\u0cb8": 4809,
  "\u2581\u0627\u06cc\u0631\u0627\u0646": 4810,
  "\u2581final": 4811,
  "\u0917\u093e": 4812,
  "\uc801": 4813,
  "\u2581\u05de\u05d9": 4814,
  "\u2581\u09b0": 4815,
  "\u10ec": 4816,
  "\u2581\u0431\u044b\u043b": 4817,
  "fan": 4818,
  "\u0dba\u0d9a\u0dca": 4819,
  "\u0634\u0646": 4820,
  "\u2581\u0623\u0648": 4821,
  "sti": 4822,
  "75": 4823,
  "\u2581\u0627\u064a": 4824,
  "\u2581gre": 4825,
  "\u10d0\u10da": 4826,
  "taa": 4827,
  "\u00e1ch": 4828,
  "zel": 4829,
  "\u0dcf\u0dc0": 4830,
  "\u0447\u043a\u0430": 4831,
  "bol": 4832,
  "\u2581\u0431\u0430\u0440": 4833,
  "fen": 4834,
  "atra": 4835,
  "\u2581kak": 4836,
  "\u2581seperti": 4837,
  "\u2581say": 4838,
  "\u2581pers": 4839,
  "\u0b9f": 4840,
  "\u10d4\u10dc": 4841,
  "\u2581\u0420\u0435": 4842,
  "bh": 4843,
  "bet": 4844,
  "\u0e97\u0eb5\u0ec8": 4845,
  "\u2581\u0eaa": 4846,
  "\u2581baz": 4847,
  "\u0424": 4848,
  "\u2581umuntu": 4849,
  "hon": 4850,
  "\u00f0a": 4851,
  "\u042f": 4852,
  "idas": 4853,
  "Ar": 4854,
  "\u0569": 4855,
  "\u05d2\u05e2": 4856,
  "\u2581\u0431\u044b\u043b\u043e": 4857,
  "\u2581xa": 4858,
  "\u2581\u03b4": 4859,
  "\u2581\u06a9\u0631\u062f": 4860,
  "\u0578\u0582\u0569\u0575\u0578\u0582\u0576\u0568": 4861,
  "gl": 4862,
  "etr": 4863,
  "\u0631\u062f": 4864,
  "\u2581\u05dc\u05de": 4865,
  "\u0435\u0432": 4866,
  "\u2581telefon": 4867,
  "\u2581dette": 4868,
  "\u2581pov": 4869,
  "\u0259si": 4870,
  "??": 4871,
  "\u0e08\u0e32\u0e01": 4872,
  "\u2581prav": 4873,
  "utt": 4874,
  "isu": 4875,
  "erne": 4876,
  "\u2581star": 4877,
  "iset": 4878,
  "\u0499\u044b": 4879,
  "\u0631\u0627\u062a": 4880,
  "\u2581\u0440\u043e\u0437": 4881,
  "\u2581\u2588": 4882,
  "\u2581\ud55c": 4883,
  "\u2581\u1794\u17b6\u1793": 4884,
  "\u2581bud": 4885,
  "kol": 4886,
  "\u2581solo": 4887,
  "\u2581Pod": 4888,
  "\u2581Dit": 4889,
  "\u2581sech": 4890,
  "\u0440\u043e\u043c": 4891,
  "\u2581\ubcf4": 4892,
  "35": 4893,
  "\u2581esp": 4894,
  "\u0dd4": 4895,
  "\u1785": 4896,
  "\u2581aber": 4897,
  "\u2581num": 4898,
  "\u2581\u00c7": 4899,
  "\u6703": 4900,
  "vers": 4901,
  "\u2581cum": 4902,
  "\u2581\u0916": 4903,
  "rij": 4904,
  "\u0a3e": 4905,
  "\u1205": 4906,
  "\u2581\u0645\u0644": 4907,
  "des": 4908,
  "\u2581inf": 4909,
  "\u00e8ra": 4910,
  "\u2581abantu": 4911,
  "\u0924\u093f": 4912,
  "\u2581Gal": 4913,
  "zn": 4914,
  "\u05d5\u05e7": 4915,
  "\u0a97": 4916,
  "\u2581ata": 4917,
  "utan": 4918,
  "ovat": 4919,
  "EK": 4920,
  "\u2581dra": 4921,
  "\u2581tym": 4922,
  "27": 4923,
  "\u2581tim": 4924,
  "uste": 4925,
  "\u2581kao": 4926,
  "\u2581\u0c88": 4927,
  "ligt": 4928,
  "\u0938\u0940": 4929,
  "\u0d3f\u0d15\u0d4d\u0d15": 4930,
  "\u2581\u0447\u0430": 4931,
  "\u2581prom": 4932,
  "AY": 4933,
  "\u2581mp": 4934,
  "\u10e5": 4935,
  "\u2581ng\u00e0y": 4936,
  "\u2581Kat": 4937,
  "\u2581\u121b": 4938,
  "\u0ac1": 4939,
  "\u0e27": 4940,
  "\u2581tempo": 4941,
  "vad": 4942,
  "RA": 4943,
  "\u2581usa": 4944,
  "oss": 4945,
  "\u2581gaan": 4946,
  "\u2581\u0622\u0647\u0646": 4947,
  "\u2581przez": 4948,
  "\u2581m\u00fc": 4949,
  "\u0b23": 4950,
  "\u05d9\u05dc": 4951,
  "\u2581\u0aaa\u0aa3": 4952,
  "\u2581\u043a\u0438": 4953,
  "aste": 4954,
  "\u00e1g": 4955,
  "\u0561\u056c": 4956,
  "\u2581denne": 4957,
  "\u043b\u043e\u0432": 4958,
  "\u10d0\u10ea": 4959,
  "\u5168": 4960,
  "\u0947\u0902": 4961,
  "\u2581\u03c0\u03c1\u03bf": 4962,
  "\u2581jako": 4963,
  "\u0443\u044b": 4964,
  "\u2581\u0628\u062f": 4965,
  "\u0ab2\u0abe": 4966,
  "\u2581\ud558": 4967,
  "\u2581bli": 4968,
  "\u2581biz": 4969,
  "\u05e8\u05d9\u05dd": 4970,
  "\u2581\u0a2a": 4971,
  "\u2581f\u00e8": 4972,
  "xo": 4973,
  "\u2581fac": 4974,
  "\ubcf4": 4975,
  "\u2581einer": 4976,
  "1)": 4977,
  "\u1290\u1275": 4978,
  "\u2581\u0426": 4979,
  "\u2581Vi\u1ec7t": 4980,
  "\u062a\u0627": 4981,
  "\u2581lahko": 4982,
  "\u2581\u0416": 4983,
  "\u0a2c": 4984,
  "\u2581lat": 4985,
  "arn": 4986,
  "\u81ea": 4987,
  "\u2581\u0caa": 4988,
  "\u2581\u0646\u0627\u0645": 4989,
  "\u2581\u0926": 4990,
  "\u306a\u3044": 4991,
  "ogo": 4992,
  "\u03c4\u03b9": 4993,
  "wa\u0107": 4994,
  "\u2581Aus": 4995,
  "\u0641\u062a": 4996,
  "\u0ead": 4997,
  "\u0627\u0641": 4998,
  "\u2581\u0411\u043e": 4999,
  "\u044a\u0440": 5000,
  "\u2581\u092c\u093e": 5001,
  "\u2581foar": 5002,
  "\u5979": 5003,
  "dd": 5004,
  "\u2581\u0441\u043f\u043e": 5005,
  "enda": 5006,
  "\u2581dann": 5007,
  "\u2581\u0928\u093f": 5008,
  "\u2581Kal": 5009,
  "AC": 5010,
  "tia": 5011,
  "tes": 5012,
  "\u2581\u00fe": 5013,
  "\u2581vagy": 5014,
  "istas": 5015,
  "\u2581\u043a\u043e\u0438\u0442\u043e": 5016,
  "\u2581ib": 5017,
  "hol": 5018,
  "\u2581Hotel": 5019,
  "\u2581Pri": 5020,
  "\u2581kanye": 5021,
  "\u3064": 5022,
  "\u00f0ur": 5023,
  "\u2581\u10e8\u10d4": 5024,
  "\u2581aw": 5025,
  "\u1209": 5026,
  "\u2581kakhulu": 5027,
  "ivi": 5028,
  "\u2581n\u00e5r": 5029,
  "\u2581\u0413\u043e": 5030,
  "\u540c": 5031,
  "mis": 5032,
  "\u00e9p": 5033,
  "\u043b\u044b\u04a1": 5034,
  "\u2581Ci": 5035,
  "\u2581\u0442\u043e\u0433\u043e": 5036,
  "\u2581\u0d2a\u0d4d\u0d30": 5037,
  "\u2581\u062c\u0646": 5038,
  "\u2581gli": 5039,
  "\u2581\u0bb5": 5040,
  "OT": 5041,
  "\u12a8": 5042,
  "\u0438\u043d": 5043,
  "\u2581\u0628\u0644": 5044,
  "\u2581godine": 5045,
  "\u2581Las": 5046,
  "\u2581lub": 5047,
  "\u2581onder": 5048,
  "\u2581Str": 5049,
  "\u2581\u12eb": 5050,
  "ions": 5051,
  "\u2581Vil": 5052,
  "\u2581n\u00e4r": 5053,
  "\u2581lagu": 5054,
  "\u2581pola": 5055,
  "\u0441\u0442\u0456": 5056,
  "\u2581bude": 5057,
  "eler": 5058,
  "\u03ce": 5059,
  "\u0441\u0446\u0456": 5060,
  "etta": 5061,
  "\u2581https": 5062,
  "\u06cc\u0631": 5063,
  "!\u201d": 5064,
  "ische": 5065,
  "\u0a40": 5066,
  "\u0c97\u0cb3": 5067,
  "\u2581(2": 5068,
  "\u2581parti": 5069,
  "\u03bb\u03b7": 5070,
  "\u2581\u1780\u17b6\u179a": 5071,
  "\u0e04\u0e19": 5072,
  "\u2581Pan": 5073,
  "\u0cc0": 5074,
  "\u4e09": 5075,
  "\u0259m": 5076,
  "app": 5077,
  "\u2581nya": 5078,
  "\u7f8e": 5079,
  "\u2581mana": 5080,
  "\u0578\u0580": 5081,
  "nem": 5082,
  "apan": 5083,
  "\u2581volt": 5084,
  "\u00f6l": 5085,
  "\u2581\u05d5\u05de": 5086,
  "OK": 5087,
  "ister": 5088,
  "ingi": 5089,
  "itos": 5090,
  "\u2581red": 5091,
  "yst": 5092,
  "\u0449\u0438": 5093,
  "\u2581\u05d1\u05de": 5094,
  "\u2581\u05e9\u05d9": 5095,
  "\u2581jed": 5096,
  "\u2581\u0cae": 5097,
  "cat": 5098,
  "almente": 5099,
  "\u2581\u0411\u0438": 5100,
  "~": 5101,
  "ugu": 5102,
  "wr": 5103,
  "\u81ea\u5df1": 5104,
  "bas": 5105,
  "\u043d\u0434\u0430": 5106,
  "\u05e0\u05d5\u05ea": 5107,
  "......": 5108,
  "\u2581Ya": 5109,
  "ester": 5110,
  "\u2581\u0648\u06c1": 5111,
  "i\u00f0": 5112,
  "\u2581\u1793\u17c5": 5113,
  "old": 5114,
  "\u2581kum": 5115,
  "arna": 5116,
  "\u258136": 5117,
  "rez": 5118,
  "n\u00fdch": 5119,
  "\u0442\u0438\u0442\u0435": 5120,
  "\u0a17": 5121,
  "\u2581\u05d4\u05d0\u05d8": 5122,
  "\u2581\u0aa8": 5123,
  "\u2581\u2192": 5124,
  "hel": 5125,
  "\u0d9c\u0dda": 5126,
  "\u0930\u0947": 5127,
  "\u0cbf\u0caf": 5128,
  "\u10da": 5129,
  "eter": 5130,
  "\u0459\u0430": 5131,
  ",5": 5132,
  "\u90a3": 5133,
  "php": 5134,
  "\u2581tap": 5135,
  "los": 5136,
  "\u03bb\u03bf": 5137,
  "esse": 5138,
  "\u2581top": 5139,
  "\u0b3e\u0b07": 5140,
  "\u2581czy": 5141,
  "\u4f5c": 5142,
  "\u0915\u0940": 5143,
  "\u2581\u0d91\u0d9a": 5144,
  "\u2581Mak": 5145,
  "\u2581sti": 5146,
  "\u2581had": 5147,
  "emo": 5148,
  "\u2581Ind": 5149,
  "over": 5150,
  "ilt": 5151,
  "\u2581bahin": 5152,
  "\u0434\u043d\u0430": 5153,
  "isch": 5154,
  "\u2581bro": 5155,
  "\u0644\u0645": 5156,
  "\u2581\u0e19": 5157,
  "\ub2c8": 5158,
  "In": 5159,
  "\u2581\u03c3": 5160,
  "\u00e4l": 5161,
  "\u03c1\u03b9": 5162,
  "\u2581\u0907\u0938": 5163,
  "led": 5164,
  "\u0433\u0435\u043d": 5165,
  "\u0628\u0647": 5166,
  "\u2581\u0b86": 5167,
  "\u00fan": 5168,
  "\u2581karena": 5169,
  "ital": 5170,
  "\u2581wal": 5171,
  "\u2581fu": 5172,
  "\u258132": 5173,
  "\u0ba4\u0bbf": 5174,
  "\u2581\u0d0e": 5175,
  "omen": 5176,
  "\u12e8": 5177,
  "\u2581\u062a\u062d": 5178,
  "\u0646\u06af": 5179,
  "2)": 5180,
  "\u10d0\u10dc\u10d8": 5181,
  "\u0442\u0440\u0430": 5182,
  "ioni": 5183,
  "\u0933": 5184,
  "\u045b": 5185,
  "cl": 5186,
  "\u05e0\u05d2": 5187,
  "\u03c4\u03ae": 5188,
  "ark": 5189,
  "\u0dbd\u0dcf": 5190,
  "\u2581150": 5191,
  "\u00c1": 5192,
  "anii": 5193,
  "\u2581dec": 5194,
  "\u2581kilometro": 5195,
  "\u2581\u0d9c": 5196,
  "\u2581\u0412\u044b": 5197,
  "\u2581\u043f\u0438": 5198,
  "\u0565\u0580\u056b": 5199,
  "\u2581einem": 5200,
  "\u2581sob": 5201,
  "\u2581\u05d4\u05d5\u05d0": 5202,
  "\u2581ana": 5203,
  "\u2581neg": 5204,
  "\u2581\u1010": 5205,
  "\u2581worden": 5206,
  "\u2581\u00fea\u00f0": 5207,
  "\u4f53": 5208,
  "\u2581\u043e\u0441\u0442\u0430": 5209,
  "\u2581realiz": 5210,
  "\u2581kont": 5211,
  "\u03b9\u03c3": 5212,
  "\u2581kg": 5213,
  "\u0d2e\u0d3e": 5214,
  "\u06af\u06cc": 5215,
  "\u127d": 5216,
  "\u043a\u0456\u0432": 5217,
  "\u03ce\u03bd": 5218,
  "\u3067\u3082": 5219,
  "\u2581\u090f": 5220,
  "\u2581vara": 5221,
  "\u0561\u0574": 5222,
  "\u10d5\u10d4": 5223,
  "\u2581\u05d1\u05d9": 5224,
  "\u2581\u10e3": 5225,
  "\u00e8re": 5226,
  "\u2581\u0628\u0648\u062f": 5227,
  "uro": 5228,
  "\u2581v\u00e4": 5229,
  "\u2581sat": 5230,
  "\u0107i": 5231,
  "Al": 5232,
  "\u25812018.": 5233,
  "\u0131na": 5234,
  "\u2581\u05d4\u05d9": 5235,
  "\u2581sistema": 5236,
  ",\"": 5237,
  "\u1243": 5238,
  "\u2581\u0578\u0582": 5239,
  "\u0ac0": 5240,
  "\u2581n\u01b0\u1edbc": 5241,
  "ism": 5242,
  "\u2581\u0644\u0645": 5243,
  "\ub3d9": 5244,
  "\u0ba4\u0bcd\u0ba4\u0bc1": 5245,
  "\u0101k": 5246,
  "\u2581gener": 5247,
  "iba": 5248,
  "\u5b9a": 5249,
  "itel": 5250,
  "\u0641\u0631": 5251,
  "\u06cc\u06ba": 5252,
  "j\u0105": 5253,
  "\u043b\u043d\u043e": 5254,
  "\u2581bot": 5255,
  "sto": 5256,
  "\u53ca": 5257,
  "\u2581\u1290\u12cd": 5258,
  "\u0e2b": 5259,
  "\u0395": 5260,
  "\u2581\u099c": 5261,
  "\u0442\u0430\u0440\u044b": 5262,
  "\u2581tul": 5263,
  "\u043d\u044c": 5264,
  "imb": 5265,
  "\u2581Indonesia": 5266,
  "\u2581rak": 5267,
  "\u043d\u0438\u0446\u0438": 5268,
  "\u1000\u1039": 5269,
  "\u013c": 5270,
  "\u0997": 5271,
  "\u2581th\u00ec": 5272,
  "\u2581Ac": 5273,
  "lah": 5274,
  "\u2581\u062a\u0639": 5275,
  "\u307e": 5276,
  "\u2581Son": 5277,
  "\u2581\u179a": 5278,
  "\u2581\u0430\u043b": 5279,
  "\u043c\u04d9": 5280,
  "\u2581\u0628\u064a": 5281,
  "\u0902\u0917": 5282,
  "\u0b9f\u0bcd\u0b9f": 5283,
  "\u043d\u044b\u044f": 5284,
  "\u2581Mac": 5285,
  "ikat": 5286,
  "\u0131z": 5287,
  "\u2581stor": 5288,
  "\u12cb": 5289,
  "\u0633\u06cc": 5290,
  "\u2581jadi": 5291,
  "\u2581vit": 5292,
  "\u2581nah": 5293,
  ");": 5294,
  "\u5411": 5295,
  "\u2581liv": 5296,
  "\u178f": 5297,
  "\u2581\u0ec3\u0e99": 5298,
  "\u2581Sur": 5299,
  "zat": 5300,
  "\u30a2": 5301,
  "\u2581\u10e4": 5302,
  "\u05e0\u05d9\u05dd": 5303,
  "21": 5304,
  "\u0901": 5305,
  "\u2581tako": 5306,
  "\u00e4m": 5307,
  "\u0995\u09c7": 5308,
  "\u2581\u0a2e": 5309,
  "\u258111.": 5310,
  "\u2581tud": 5311,
  "\u2581\u0645\u062d": 5312,
  "\u092b": 5313,
  "\u0dbb\u0dca": 5314,
  "\u043b\u04d9": 5315,
  "\u2581hab": 5316,
  "\u2581lib": 5317,
  "\u2581nh": 5318,
  "ilan": 5319,
  "ango": 5320,
  "enc": 5321,
  "\u04e9\u0440": 5322,
  "\u2581\uc788\ub294": 5323,
  "95": 5324,
  "enter": 5325,
  "\u0abf": 5326,
  "\u0db1\u0dca\u0db1": 5327,
  "\u101c": 5328,
  "\u0ddd": 5329,
  "ingu": 5330,
  "\u03b9\u03b1": 5331,
  "UL": 5332,
  "\u2581\u0b05": 5333,
  "\u0565": 5334,
  "\u2581\u10ee": 5335,
  "\u2581\u0646\u0627": 5336,
  "\u12c8": 5337,
  "\u2581p\u0101r": 5338,
  "upa": 5339,
  "\u2581Una": 5340,
  "\u2581pul": 5341,
  "\u2581mere": 5342,
  "\u0eb2": 5343,
  "\u03bb\u03b5": 5344,
  "\u1348": 5345,
  "\u043b\u0442": 5346,
  "\u2581ord": 5347,
  "\u2581mend": 5348,
  "\u2581Pal": 5349,
  "\u2581\u0645\u062d\u0645\u062f": 5350,
  "\u0e41\u0e25\u0e49\u0e27": 5351,
  "\u5f8c": 5352,
  "\u05e7\u05d9": 5353,
  "\u2581syn": 5354,
  "\u0444\u0430": 5355,
  "\u2581\u0648\u0623": 5356,
  "tica": 5357,
  "\u2581\u0433\u0440\u0430": 5358,
  "uke": 5359,
  "\u05e2\u05df": 5360,
  "\u2010": 5361,
  "\u2581\u043b\u0456": 5362,
  "\u2581Post": 5363,
  "\u2581Sel": 5364,
  "\u2581teu": 5365,
  "\u2581\u0c87": 5366,
  "cel": 5367,
  "port": 5368,
  "och": 5369,
  "\u2581Frysl\u00e2n": 5370,
  "\u0627\u0626\u06cc": 5371,
  "raz": 5372,
  "\u10d6": 5373,
  "\u0bb0\u0bbf": 5374,
  "\u043f\u0440\u0430": 5375,
  "\u0a8f": 5376,
  "\u0575\u0561\u0576": 5377,
  "\u66f4": 5378,
  "\u2581grup": 5379,
  "\u2581\u05e9\u05de": 5380,
  "\u2581\u0438\u043d": 5381,
  "uso": 5382,
  "\u2581\u0647\u0630\u0627": 5383,
  "\u179b": 5384,
  "\u012bbu": 5385,
  "\u0442\u0438\u0432": 5386,
  "\u0ca3": 5387,
  "\u06cc\u06a9": 5388,
  "\u0e32\u0e19": 5389,
  "rom": 5390,
  "icos": 5391,
  "\u0b99\u0bcd\u0b95": 5392,
  "ydd": 5393,
  "\u2581\u05d0\u05d6": 5394,
  "\u03ba\u03b1": 5395,
  "\u0442\u044b\u04a3": 5396,
  "\u2581leis": 5397,
  "\u0938\u0947": 5398,
  "\u2581lis": 5399,
  "\u2581vet": 5400,
  "owych": 5401,
  "\u2581Dat": 5402,
  "\u2581Mor": 5403,
  "\u0645\u0631": 5404,
  "czy": 5405,
  "\u2581\u0442\u0440\u0438": 5406,
  "\u2581hur": 5407,
  "\u2581Nov": 5408,
  "\u2581mest": 5409,
  "\u2581\u0633\u06cc": 5410,
  "\uc694": 5411,
  "\u2581(3)": 5412,
  "\u2581nal": 5413,
  "owy": 5414,
  "\u2581saj": 5415,
  "\u2581\u0634\u0645\u0627": 5416,
  "\u2581Kol": 5417,
  "\u0113t": 5418,
  "\u2581dau": 5419,
  "97": 5420,
  "\u045b\u0430": 5421,
  "\u0bb3": 5422,
  "unde": 5423,
  "\uac8c": 5424,
  "eki": 5425,
  "\u2581sangat": 5426,
  "\u53d1": 5427,
  "ires": 5428,
  "\u09cd\u09b0": 5429,
  "aca": 5430,
  "\u5229": 5431,
  "\u0428": 5432,
  "\u0bc8": 5433,
  "\u0927": 5434,
  "\u2581polit": 5435,
  "\u2581\u0ca4": 5436,
  "\u2581kada": 5437,
  "',": 5438,
  "\u056c": 5439,
  "\u2581g\u00f6r": 5440,
  "jak": 5441,
  "\u2581nep": 5442,
  "5)": 5443,
  "etti": 5444,
  "\u2581n\u00f3": 5445,
  "\u2581Hal": 5446,
  "\u671f": 5447,
  "\u2581\uc2dc": 5448,
  "eller": 5449,
  "\u2581s\u1ea3n": 5450,
  "\u4ece": 5451,
  "\u0d2f\u0d3f": 5452,
  "\u043b\u044b\u043d": 5453,
  "\u2581\u0423\u043a\u0440\u0430\u0457\u043d\u0438": 5454,
  "\u2581\u0427": 5455,
  "\u00f6t": 5456,
  "\u2581Bel": 5457,
  "\u2581\u0442\u043e\u043c": 5458,
  "esp": 5459,
  "\u0e82\u0ead\u0e87": 5460,
  "\u2581Web": 5461,
  "\u0634\u06cc": 5462,
  "\u2581\u0938\u0941": 5463,
  "\u2581\u098f": 5464,
  "\u2581w\u00e9i": 5465,
  "\u0a39": 5466,
  "atie": 5467,
  "\u2581gi\u00e1": 5468,
  "\u2581\u0431\u0443\u0434\u0435\u0442": 5469,
  "\u2581\u05e2\u05e8": 5470,
  "\u0aaf": 5471,
  "\u2581\u0645\u064a": 5472,
  "\u1323": 5473,
  "\u2581ch\u00ednh": 5474,
  "\u2581\u092b": 5475,
  "tak": 5476,
  "\u2581\u0a39": 5477,
  "\u2581Han": 5478,
  "\u2581wo": 5479,
  "ign": 5480,
  "\u0ab0\u0abe": 5481,
  "\u2581Ich": 5482,
  "uden": 5483,
  "\u00fcnk": 5484,
  "\u2581TI": 5485,
  "\u2581zur": 5486,
  "\u5185": 5487,
  "\u2581mange": 5488,
  "\u2581deze": 5489,
  "lek": 5490,
  "\u0131l": 5491,
  "\u03ac\u03bd": 5492,
  "icas": 5493,
  "rea": 5494,
  "itor": 5495,
  "\u05e9\u05d4": 5496,
  "\u2581HD": 5497,
  "\u0441\u043a\u0438\u0439": 5498,
  "\u2581pus": 5499,
  "liga": 5500,
  "\u0abe": 5501,
  "\u092e\u0940": 5502,
  "\u3089": 5503,
  "\u0432\u043d\u0438": 5504,
  "lis": 5505,
  "\u0448\u0442\u0430": 5506,
  "\u0bbf\u0baf": 5507,
  "\u0c95\u0ccd\u0c95\u0cc6": 5508,
  "\u0935\u0940": 5509,
  "aye": 5510,
  "\u2581\u05de\u05d9\u05d8": 5511,
  "ieren": 5512,
  "\u0627\u0646\u064a": 5513,
  "\u2581wedi": 5514,
  "CH": 5515,
  "asyon": 5516,
  "inter": 5517,
  "\u258112.": 5518,
  "\u00e0s": 5519,
  "\u2581\u0444": 5520,
  "\u0442\u0435\u043b": 5521,
  "\u2581put": 5522,
  "\u2581aux": 5523,
  "\u2581Ir": 5524,
  "IP": 5525,
  "ST": 5526,
  "\u00e8n": 5527,
  "\u0432\u0430\u0442\u044c": 5528,
  "\u091c\u0940": 5529,
  "\u2581\u0412\u0430": 5530,
  "\u2581\u03a4\u03bf": 5531,
  "\u2581\u0421\u0435": 5532,
  "\u0440\u044b\u043d": 5533,
  "\u2581waar": 5534,
  "\u2581hag": 5535,
  "\u0c9f": 5536,
  "ativa": 5537,
  "\u0bbe\u0b95": 5538,
  "\u2581\u03b5\u03c0\u03b9": 5539,
  "\u2581Nie": 5540,
  "\u2581kaNkulunkulu": 5541,
  "qa": 5542,
  "\u2581seus": 5543,
  "vr": 5544,
  "\u0d26": 5545,
  "isto": 5546,
  "\u102d": 5547,
  "\u0e01\u0e47": 5548,
  "\u10e0\u10dd": 5549,
  "\u043b\u0456\u043a": 5550,
  "\u2581Pen": 5551,
  "\u0449\u0435": 5552,
  "\u2581mens": 5553,
  "\u0449": 5554,
  "\u0561\u0581": 5555,
  "\u2581\u0d38": 5556,
  "\u2581\u0646\u0638\u0631": 5557,
  "\u0160": 5558,
  "\u2581smo": 5559,
  "\u2581\u06c1": 5560,
  "\u2581eo": 5561,
  "\u0e9a": 5562,
  "\u062f\u0627": 5563,
  "\u30ea": 5564,
  "\u2581Cr": 5565,
  "\u2581pil": 5566,
  "\u1782": 5567,
  "\u2581mutta": 5568,
  "\u2581deu": 5569,
  "\u2581ere": 5570,
  "esz": 5571,
  "zie": 5572,
  "\u2581\u0627\u0644\u0635": 5573,
  "\u2581\u0432\u0440\u0435\u043c\u0435": 5574,
  "\u2581my\u00f6s": 5575,
  "\u0419": 5576,
  "\u2581\u05e0\u05d9\u05e9\u05d8": 5577,
  "wn": 5578,
  "pis": 5579,
  "\u2581\u0e1e": 5580,
  "\u2581\u0441\u0442\u043e": 5581,
  "\u2581asi": 5582,
  "\u2581\uc778": 5583,
  "vas": 5584,
  "\u2581oc": 5585,
  "\u010dka": 5586,
  "\u2581jam": 5587,
  "son": 5588,
  "inne": 5589,
  "usk": 5590,
  "lam": 5591,
  "uno": 5592,
  "ungan": 5593,
  "\u00e0n": 5594,
  "cji": 5595,
  "\u0578\u0582\u0576": 5596,
  "\uc6a9": 5597,
  "ize": 5598,
  "\u2581ged": 5599,
  "\u2581faire": 5600,
  "\u03bf\u03c5\u03bd": 5601,
  "\u2581\u0907": 5602,
  "\u2581kell": 5603,
  "lav": 5604,
  "\u12ab": 5605,
  "\u2581EN": 5606,
  "\u0446\u044f": 5607,
  "unan": 5608,
  "jel": 5609,
  "way": 5610,
  "\u2581\u043a\u0440\u0430": 5611,
  "\u2581pin": 5612,
  "IG": 5613,
  "BA": 5614,
  "\u2581\u043f\u043e\u0441\u043b\u0435": 5615,
  "ANG": 5616,
  "ris": 5617,
  ".[2]": 5618,
  "\u3067\u306f": 5619,
  "\u2581\u0570\u0561\u0574\u0561\u0580": 5620,
  "al\u0131": 5621,
  "idd": 5622,
  "emu": 5623,
  "\u2581\u10ec": 5624,
  "\u2581etc": 5625,
  "\u2581m\u00e1r": 5626,
  "\u2581\u03c3\u03c4\u03b1": 5627,
  "\u10da\u10d8\u10e1": 5628,
  "\u2581votre": 5629,
  "\u2581bad": 5630,
  "zd": 5631,
  "\u0c97\u0cc6": 5632,
  "\u2581t\u00e1": 5633,
  "cin": 5634,
  "\u2581v\u00e4l": 5635,
  "\u2581\u043f\u0440\u043e\u0441\u0442\u043e": 5636,
  "\u2581\u0ab8": 5637,
  "\u2581\u0985": 5638,
  "\u2581g\u00e5r": 5639,
  "\u2581\uc788\ub2e4": 5640,
  "\u2581mata": 5641,
  "\u0915\u0947": 5642,
  "\u2581\ub098": 5643,
  "\u2581\u0e17\u0e35\u0e48": 5644,
  "\u2581\u0aaa\u0ab0": 5645,
  "\u0563": 5646,
  "\u2581\u0932": 5647,
  "\u010da": 5648,
  "\u2581zas": 5649,
  "\u2581a\u00f1os": 5650,
  "\u2581\u0627\u0644\u0628": 5651,
  "\u2581400": 5652,
  "\u043a\u043b\u0430": 5653,
  "\u0ba3": 5654,
  "\u2581ukuze": 5655,
  "\u0cbe\u0c97": 5656,
  "\u0561\u057d": 5657,
  "ijos": 5658,
  "\u2581voi": 5659,
  "\u2581ner": 5660,
  "dar": 5661,
  "raf": 5662,
  "\u1004\u1039\u1038": 5663,
  "\u2581dre": 5664,
  "obi": 5665,
  "7)": 5666,
  "\u2581tema": 5667,
  "\u05e2\u05e1": 5668,
  "\u05d5\u05e4": 5669,
  "iller": 5670,
  "iyo": 5671,
  "olu": 5672,
  "\u2581BBC": 5673,
  "\u2581prov": 5674,
  "\u2581dire": 5675,
  "\u2581len": 5676,
  "index": 5677,
  "\u2581samo": 5678,
  "erea": 5679,
  "enen": 5680,
  "\u0441\u0442\u0430\u043d": 5681,
  "ea": 5682,
  "\u2581wenno": 5683,
  "\u2581real": 5684,
  "\u2581mol": 5685,
  "isin": 5686,
  "\u0635\u0644": 5687,
  "\u2581nh\u00e2n": 5688,
  "\u258134": 5689,
  "\u2581--": 5690,
  "\u2581Jan": 5691,
  "\u00ae": 5692,
  "oki": 5693,
  "\u0a42": 5694,
  "\u2581mult": 5695,
  "hy": 5696,
  "OV": 5697,
  "rot": 5698,
  "\u4f4d": 5699,
  "\u2581Ez": 5700,
  "\u2581oyo": 5701,
  "\u2581eks": 5702,
  "\u0ab0\u0ac0": 5703,
  "\u2581\uc81c": 5704,
  "\u015bci": 5705,
  "\u10e6": 5706,
  "\u2581k\u00f6nnen": 5707,
  "\u2581\u0440\u0430\u0441": 5708,
  "\u091c\u093e": 5709,
  "\u2581Ed": 5710,
  "inar": 5711,
  "\u2581\u09a6": 5712,
  "nings": 5713,
  "\u2581n\u00ed": 5714,
  "\u2581\u03c3\u03c4\u03b7": 5715,
  "200": 5716,
  "\u0ea5": 5717,
  "\u2581l\u00e4": 5718,
  "\u03bc\u03bf": 5719,
  "\u043d\u043e\u0435": 5720,
  "\u044b\u043d\u0434\u0430": 5721,
  "mon": 5722,
  "\u2581hele": 5723,
  "\u611f": 5724,
  "\u0434\u044b\u04a3": 5725,
  "\u0942\u0928": 5726,
  "\u2581\u099a": 5727,
  "\u043c\u0435\u0440": 5728,
  "\u0646\u06d2": 5729,
  "amba": 5730,
  "ismo": 5731,
  "\u2581\u0645\u0633": 5732,
  "\u898b": 5733,
  "\u2581moment": 5734,
  "med": 5735,
  "ING": 5736,
  "\u0a30\u0a40": 5737,
  "\u2581kit": 5738,
  "\u09be\u09b2": 5739,
  "f\u00f6r": 5740,
  "\u0ea1": 5741,
  "lic": 5742,
  "\u2581\u03ae": 5743,
  "\u2581fre": 5744,
  "\u0e8d": 5745,
  "l\u0259ri": 5746,
  "\u2581\u0e41": 5747,
  "\u2581fot": 5748,
  "elser": 5749,
  "is\u00eb": 5750,
  "\u2581wil": 5751,
  "\u0645\u064a": 5752,
  "4)": 5753,
  "\u2581etter": 5754,
  "\u2581\u0924\u0930": 5755,
  "\u2581zi": 5756,
  "\u2581\uc9c0": 5757,
  "\u2581m\u1edbi": 5758,
  "\u2581\u0dc0\u0dd2": 5759,
  "\u1014\u1039": 5760,
  "\u2581dha": 5761,
  "\u0cc1\u0cb5": 5762,
  "\u2581jaar": 5763,
  "\u0b39": 5764,
  "\u1031": 5765,
  "avi": 5766,
  "\u2581prof": 5767,
  "\u2581\u0627\u0641\u063a\u0627\u0646\u0633\u062a\u0627\u0646": 5768,
  "\u2581\u0151": 5769,
  "ved": 5770,
  "\u03c4\u03b9\u03ba\u03ae": 5771,
  "\u0bb5\u0bbf": 5772,
  "\u2581\u0a8f\u0a95": 5773,
  "isan": 5774,
  "\u0442\u04d9": 5775,
  "\u0436\u0434\u0430": 5776,
  "\u05d5\u05e1": 5777,
  "\u1320": 5778,
  "\u0561\u056e": 5779,
  "\u2581Twitter": 5780,
  "tal": 5781,
  "\u2581\u05d4\u05d7": 5782,
  "\u043b\u0434": 5783,
  "cas": 5784,
  "\u91cc": 5785,
  "\u2581sport": 5786,
  "\u0cbe\u0ca6": 5787,
  "\u0b5f": 5788,
  "\u2581h\u01a1n": 5789,
  "\u00e9ieren": 5790,
  "\u2581Met": 5791,
  "\u2581Oromoo": 5792,
  "\u0d30\u0d3f": 5793,
  "\u05e6\u05d9": 5794,
  "\u8d77": 5795,
  "\u2581\u0420\u043e": 5796,
  "ilm": 5797,
  "\u2581\u0aae\u0abe\u0a9f\u0ac7": 5798,
  "\u0440\u044d": 5799,
  "6)": 5800,
  "\u061b": 5801,
  "\u2581\u0b8e": 5802,
  "alle": 5803,
  "\uc2e0": 5804,
  "\u2581\u0d9a\u0dbb": 5805,
  "#": 5806,
  "hin": 5807,
  "\u2581\u03b1\u03c0\u03bf": 5808,
  "\u1791": 5809,
  "\u2581EU": 5810,
  "isme": 5811,
  "\u2581ih": 5812,
  "\u2581\u1031": 5813,
  "\u2581\u05d9\u05e9": 5814,
  "\u2581trans": 5815,
  "\u2581\u0432\u0456": 5816,
  "\u06a9\u06cc": 5817,
  "\u2581daar": 5818,
  "\u2581\u0935\u093e": 5819,
  "\u09b6": 5820,
  "\u0ac7": 5821,
  "\u0ab3": 5822,
  "\u2581\u0648\u0631": 5823,
  "\u2581ung": 5824,
  "\u300b": 5825,
  "\u2581\u0392": 5826,
  "\u2581lek": 5827,
  "\u2581\u0563": 5828,
  "amar": 5829,
  "\u2581\u0633\u0648": 5830,
  "\u2581Bil": 5831,
  "\u0e38": 5832,
  "RE": 5833,
  "\u2581\u0434\u0432\u0430": 5834,
  "\u0631\u0647": 5835,
  "\u0648\u062a": 5836,
  "\u0406": 5837,
  "\u2581teg": 5838,
  "v\u00e4": 5839,
  "pak": 5840,
  "\u2581primer": 5841,
  "\u2581bare": 5842,
  "\u8fd8": 5843,
  "\u2581neb": 5844,
  "\u2581\u0421\u0438": 5845,
  "\u2581kos": 5846,
  "\u2581Ein": 5847,
  "\u2581hanya": 5848,
  "\u2581Eng": 5849,
  "cho": 5850,
  "\u2581dira": 5851,
  "\u0a93": 5852,
  "\u2581\u0648\u06cc": 5853,
  "\u516c\u53f8": 5854,
  "\u2581h\u1ee3p": 5855,
  "\u0e97": 5856,
  "nici": 5857,
  "\u2581\u0430\u0431\u043e": 5858,
  "\u2581\u05e4\u05d0\u05e8": 5859,
  "\u2581eru": 5860,
  "imiz": 5861,
  "\u10d4\u10da": 5862,
  "arm": 5863,
  "\u1364": 5864,
  "\u2581\u0e01": 5865,
  "\u2581gia": 5866,
  "\u2581\u00fev\u00ed": 5867,
  "\u2581anos": 5868,
  "\u0d24\u0d4d\u0d24\u0d3f": 5869,
  "\u0441\u043a\u043e\u0439": 5870,
  "\u0107a": 5871,
  "pad": 5872,
  "\u2581nj": 5873,
  "arb": 5874,
  "tii": 5875,
  "\u2581mik": 5876,
  "\u2581vos": 5877,
  "\u2581\u09ac": 5878,
  "aut": 5879,
  ",000": 5880,
  "\u2581\u0aac": 5881,
  "\u00f1a": 5882,
  "\u2581n\u00e4": 5883,
  "egu": 5884,
  "\u2581\u05d6\u05d9\u05da": 5885,
  "\u2581sonra": 5886,
  "\u043a\u043e\u0439": 5887,
  "at\u0103": 5888,
  "\u2581\u0d91": 5889,
  "\u2581apar": 5890,
  "en\u00ed": 5891,
  "ory": 5892,
  "\u2581\ubc0f": 5893,
  "\u044f\u043d": 5894,
  "\u2581cl": 5895,
  "\u2581\u0627\u0644\u062c": 5896,
  "\u0a35": 5897,
  "\u0638": 5898,
  "\u2581imoto": 5899,
  "\u0bb5\u0bc1": 5900,
  "\u2581d\u00eda": 5901,
  "\u010dne": 5902,
  "\u0499\u0430": 5903,
  "\u4f86": 5904,
  "\u2581kry": 5905,
  "mek": 5906,
  "\u2581\u092d\u090f\u0915\u094b": 5907,
  "\u2581kuk": 5908,
  "\u043b\u043d\u0438": 5909,
  "\u09a4\u09c7": 5910,
  "\u05d5\u05e0": 5911,
  "\u0dd2\u0dba": 5912,
  "\u2581pet": 5913,
  "\u2581ton": 5914,
  "\u0a3f\u0a06": 5915,
  "\u3048": 5916,
  "\u2581jsem": 5917,
  "\u2581Mil": 5918,
  "\u2581Ve": 5919,
  "ton": 5920,
  "\u2581Mah": 5921,
  "\u2581Gar": 5922,
  "\u2581\u09aa\u09cd\u09b0": 5923,
  "\u0d31\u0d4d\u0d31": 5924,
  "\u2581th\u1ebf": 5925,
  "\u05d5\u05d2": 5926,
  "\u093e\u0930": 5927,
  "\u2581marca": 5928,
  "\u0935\u0947": 5929,
  "\u2581oor": 5930,
  "\u4e2a": 5931,
  "xi": 5932,
  "\u505a": 5933,
  "\u2581AS": 5934,
  "\u2581eziningi": 5935,
  "\u0441\u043a\u0438\u0445": 5936,
  "\u6b21": 5937,
  "gang": 5938,
  "itus": 5939,
  "\u068a": 5940,
  "ipun": 5941,
  "\u2581waa": 5942,
  "\u0642\u064a": 5943,
  "\u2581\u0627\u0645": 5944,
  "\u2581\u0e04": 5945,
  "\ube44": 5946,
  "\u2581gro": 5947,
  "\u2581\u05e2\u05e1": 5948,
  "\u0d36": 5949,
  "\u2581ireo": 5950,
  "\u2581tv": 5951,
  "\u2581uw": 5952,
  "\u2581\u0a35\u0a3f\u0a71\u0a1a": 5953,
  "\u043b\u0435\u043d\u043d\u044f": 5954,
  "\u6b63": 5955,
  "ags": 5956,
  "hod": 5957,
  "\u099c": 5958,
  "\u2581sud": 5959,
  "\u516c": 5960,
  "\u045b\u0435": 5961,
  "\u0d15\u0d4d\u0d15\u0d4d": 5962,
  "\u0447\u043d\u0438": 5963,
  "\u2581Tra": 5964,
  "\u06ab": 5965,
  "\u2581<": 5966,
  "\u2581\u0443\u043b": 5967,
  "nan": 5968,
  "\u2581\u042e": 5969,
  "\u0578": 5970,
  "\u2581\u043c\u043e\u0436\u0435\u0442": 5971,
  "\u2581sad": 5972,
  "\u10d0\u10e2": 5973,
  "\u5de5\u4f5c": 5974,
  "\u10d4\u10da\u10d8": 5975,
  "\u2581\uc544": 5976,
  "\u2581\u0430\u0431": 5977,
  "\u0d39": 5978,
  "\u2581\u05d4\u05e7": 5979,
  "\u2581\u0432\u0440\u0435\u043c\u044f": 5980,
  "wu": 5981,
  "enia": 5982,
  "\u0440\u0430\u043c": 5983,
  "DA": 5984,
  "\u0d2f\u0d3e": 5985,
  "esh": 5986,
  "\u2581pm": 5987,
  "\u043d\u043e\u0441\u0442\u044c": 5988,
  "\u2581gas": 5989,
  "\u2581\u043f\u0440\u0430\u0432\u0430": 5990,
  "\u0b1f": 5991,
  "\u2581Inter": 5992,
  "\u0a26\u0a3e": 5993,
  "\u2581Sol": 5994,
  "\u2581comp": 5995,
  "\u0bcb": 5996,
  "\u0645\u062a": 5997,
  "v\u00ed": 5998,
  "\u2581\u0111\u1ecbnh": 5999,
  "\u2581ve\u010d": 6000,
  "\u2581th\u00f4ng": 6001,
  "lichen": 6002,
  "\u2581adda": 6003,
  "agu": 6004,
  "unu": 6005,
  "\u2581gikan": 6006,
  "\u2581\u0648\u0642\u062a": 6007,
  "\u0628\u0627": 6008,
  "\u2581alebo": 6009,
  "alm": 6010,
  "\u0622": 6011,
  "\u1001": 6012,
  "uki": 6013,
  "\u00eancia": 6014,
  "\u092a\u093e": 6015,
  "\u2581Wa": 6016,
  "ram": 6017,
  "\u2581Pag": 6018,
  "\u25812000": 6019,
  "tere": 6020,
  "\u2581vien": 6021,
  "\u2581....": 6022,
  "\u2581wala": 6023,
  "\u2581\u0e01\u0e32\u0e23": 6024,
  "\u2581\u062f\u0647": 6025,
  "\u043b\u0435\u0440": 6026,
  "\u25814,": 6027,
  "\u0e1f": 6028,
  "\u2581tah": 6029,
  "\u2581\u0412\u0435": 6030,
  "\u0564": 6031,
  "\u0d30\u0d41": 6032,
  "\u0db1\u0dba": 6033,
  "\u0e8a": 6034,
  "\u2581Fe": 6035,
  "\u0441\u043d\u0438": 6036,
  "juk": 6037,
  "\u0db1\u0dcf": 6038,
  "\u05e2\u05dc": 6039,
  "\u043b\u044c\u043d\u043e\u0433\u043e": 6040,
  "oval": 6041,
  "\u2581\u0435\u0441\u043b\u0438": 6042,
  "\u2581sens": 6043,
  "\u2581\u0628\u0627\u0634\u062f": 6044,
  "\u093e": 6045,
  "imp": 6046,
  "anka": 6047,
  ".000": 6048,
  "\u0446\u0446\u0430": 6049,
  "\u0441\u043a\u0430\u044f": 6050,
  "\u2581\u0d86": 6051,
  "\u2581lin": 6052,
  "ind\u0259": 6053,
  "\u2581\u0645\u0648\u0636\u0648\u0639": 6054,
  "\u2581\u043f\u0440\u0430\u0432\u043e": 6055,
  "iert": 6056,
  "\u2581hulle": 6057,
  "\u2581\u03ad\u03bd\u03b1": 6058,
  "\u0565\u0581": 6059,
  "\u0131k": 6060,
  "\u2581dua": 6061,
  "\u0641\u064a": 6062,
  "\u092d": 6063,
  "\u2581kil": 6064,
  "\u056b\u056f": 6065,
  "\u2581tun": 6066,
  "\u0b1c": 6067,
  "\u2581Cast": 6068,
  "\u2581\u043c\u0456": 6069,
  "\u2581\u0531": 6070,
  "\u2581\u054d": 6071,
  "\u2581nd\u1ecb": 6072,
  "\u2581koje": 6073,
  "\u043f\u0440\u0435": 6074,
  "chu": 6075,
  "\u2581\u05d0\u05d9\u05da": 6076,
  "\u0e07\u0e32\u0e19": 6077,
  "eres": 6078,
  "\u2581\u0ba8": 6079,
  "\u2581hos": 6080,
  "ece": 6081,
  "\u2581\u0448\u0430": 6082,
  "\u2581d\u00e4r": 6083,
  "\u2581\u05d4\u05e4": 6084,
  "\uce58": 6085,
  "elles": 6086,
  "\u0baa\u0bcd\u0baa\u0bc1": 6087,
  "\u0647\u0627\u06cc": 6088,
  "akin": 6089,
  "vir": 6090,
  "\u25812006": 6091,
  "\u0442\u0435\u043b\u0438": 6092,
  "ump": 6093,
  "\u10da\u10dd": 6094,
  "iju": 6095,
  "icu": 6096,
  "\u2581vin": 6097,
  "\u2581\u062e\u0627\u0646": 6098,
  "\u067c": 6099,
  "\u2581mehr": 6100,
  "ader": 6101,
  "zenia": 6102,
  "\u0434\u0435\u0440": 6103,
  "\u2581\u092e\u0941": 6104,
  "\u2581dod": 6105,
  "\u2581ary": 6106,
  "ajo": 6107,
  "\u0a24\u0a47": 6108,
  "\u2581mand": 6109,
  "\u91cd": 6110,
  "\u2581hindi": 6111,
  "\u2581way": 6112,
  "akat": 6113,
  "\u091f\u0940": 6114,
  "\u2581\u06a9\u0646\u062f": 6115,
  "\u00e3": 6116,
  "\u05e2\u05e0": 6117,
  "\u0440\u0438\u044f": 6118,
  "\u2581sinh": 6119,
  "\u2581\u044e\u043c": 6120,
  "\u2581\u1794\u17d2\u179a": 6121,
  "\u2581Kung": 6122,
  "jev": 6123,
  "eze": 6124,
  "yy": 6125,
  "\u2581m\u00e9": 6126,
  "\u2581\u043a\u043e\u0442\u043e\u0440\u044b\u0435": 6127,
  "\u3054": 6128,
  "\u03c3\u03b5\u03b9": 6129,
  "\u2581map": 6130,
  "\u0dd2\u0db1\u0dca": 6131,
  "\u2581(4": 6132,
  "\u0bc1": 6133,
  "jed": 6134,
  "\u2581\u0627\u0628": 6135,
  "\u2581uchun": 6136,
  "yar": 6137,
  "\u2581thu": 6138,
  "esen": 6139,
  "\u0434\u0437\u0435": 6140,
  "\u044e\u0442\u0441\u044f": 6141,
  "\u2581kuma": 6142,
  "\u2581m\u00ecnh": 6143,
  "\u2581Som": 6144,
  "\u0dd2\u0d9a": 6145,
  "\u2581programa": 6146,
  "\u2581Video": 6147,
  "\u2581\u0646\u0648": 6148,
  "\u00e9rt": 6149,
  "\u043d\u0438\u044e": 6150,
  "\u2581kah": 6151,
  "\u00ean": 6152,
  "\u2581ov": 6153,
  "\u2581\u04e9": 6154,
  "\u03be": 6155,
  "\u0e17\u0e4d\u0e32": 6156,
  "\u2581samt": 6157,
  "\u2581veel": 6158,
  "\u2581\u0627\u0644\u0627": 6159,
  "\u06cd": 6160,
  "\u2581Inc": 6161,
  "\u2581\u05e9\u05d4": 6162,
  "\u0b3f\u0b24": 6163,
  "obe": 6164,
  "\u2581\u0d36": 6165,
  "\u2581\u0a05": 6166,
  "eu": 6167,
  "\uc0b0": 6168,
  "\u00e9es": 6169,
  "\u2581\u05d0\u05dc": 6170,
  "\u2581\u10db\u10d8": 6171,
  "\u2581bang": 6172,
  "\u2581lah": 6173,
  "\u2581\u0939\u0947": 6174,
  "\u0987": 6175,
  ".[3]": 6176,
  "\u2581temps": 6177,
  "\u2581kala": 6178,
  "\u2581\u049b\u0430": 6179,
  "\u099f": 6180,
  "\u05d0\u05dc": 6181,
  "\u2581s\u00faa": 6182,
  "taj": 6183,
  "eria": 6184,
  "\u2581media": 6185,
  "dom": 6186,
  "\u258138": 6187,
  "\u2581klima": 6188,
  "\u0ab6": 6189,
  "\u2581Art": 6190,
  "\u2581\u0aaa": 6191,
  "\u6d77": 6192,
  "\u17b6\u1793": 6193,
  "\u2581porque": 6194,
  "\u00e1n\u00ed": 6195,
  "\u094d": 6196,
  "\u2581\u0aae": 6197,
  "\u0ab2\u0ac0": 6198,
  "\u0923\u0940": 6199,
  "\u2581badan": 6200,
  "bre": 6201,
  "\u2581l\u00e1": 6202,
  "\u2581\u0a15\u0a3f": 6203,
  "lige": 6204,
  "\u2581Kor": 6205,
  "\u2581caso": 6206,
  "\u2581siis": 6207,
  "\u2581moet": 6208,
  "\u2581Esp": 6209,
  "\u2581\u043d\u0435\u0433\u043e": 6210,
  "\u2581apr": 6211,
  "\u2581\u0647\u064a": 6212,
  "alam": 6213,
  "\u2581ele": 6214,
  "\u2581ovat": 6215,
  "\u2581Top": 6216,
  "\u2581\u0a32\u0a08": 6217,
  "iche": 6218,
  "\u2581hoe": 6219,
  "\u2581pens": 6220,
  "\u2581sein": 6221,
  "\u2581conc": 6222,
  "\u2581Bet": 6223,
  "\u2581\u05de\u05d0": 6224,
  "\u2581ji": 6225,
  "ence": 6226,
  "29": 6227,
  "\u2581Mus": 6228,
  "\u2581deb": 6229,
  "\u093e\u0928": 6230,
  "\u2581skulle": 6231,
  "\u2581app": 6232,
  "\u300a": 6233,
  "\u0e15\u0e31\u0e27": 6234,
  "\u1361\u1361": 6235,
  "\u00f1o": 6236,
  "\u2581Kur": 6237,
  "\u2581kod": 6238,
  "\u043d\u0456\u04a3": 6239,
  "\u2581pret": 6240,
  "\u00e1c": 6241,
  "\u049b\u0430": 6242,
  "\u2581onde": 6243,
  "\u2581izan": 6244,
  "\u0427": 6245,
  "\u0439\u043d": 6246,
  "ems": 6247,
  "\u064a\u0621": 6248,
  "\u2581lit": 6249,
  "egi": 6250,
  "\u2581\u0422\u0435": 6251,
  "\u2581\u0627\u0644\u0634": 6252,
  "rop": 6253,
  "\u4fe1": 6254,
  "\u2581akka": 6255,
  "\u2581sav": 6256,
  "\u2581\u0443\u0436\u0435": 6257,
  "\u0cb3": 6258,
  "oru": 6259,
  "\u05e8\u05d4": 6260,
  "\u2581\u10d0": 6261,
  "\u2581iwwer": 6262,
  "\u2581ia": 6263,
  "uter": 6264,
  "odu": 6265,
  "aju": 6266,
  "\u2581see": 6267,
  "\u1010\u102c": 6268,
  "\u0443\u043b": 6269,
  "\u2581sis": 6270,
  "\u2581\u05db\u05d9": 6271,
  "\u0e48": 6272,
  "\u2581::": 6273,
  "\u10d0\u10ee": 6274,
  "\u045b\u0438": 6275,
  "\u0647\u0646": 6276,
  "api": 6277,
  "\u2581rom": 6278,
  "\u17a0": 6279,
  "\u2581j\u00e1": 6280,
  "igo": 6281,
  "\u2581oper": 6282,
  "\u2581\u0997": 6283,
  "\u2581bit": 6284,
  "\u0ba4\u0bcd": 6285,
  "\u2581just": 6286,
  "\u2581\u057d": 6287,
  "\u8fc7": 6288,
  "\u0aac": 6289,
  "\u3053\u306e": 6290,
  "okat": 6291,
  "\u2581\u0a24\u0a47": 6292,
  "\u2581hotel": 6293,
  "\u2581cao": 6294,
  "my": 6295,
  "\u2581desde": 6296,
  "\u2581\u06d4": 6297,
  "\u2581\u0aa4\u0ac7": 6298,
  "65": 6299,
  "rik": 6300,
  "endi": 6301,
  "\u0648\u0633": 6302,
  "\u2581\u0645\u0634": 6303,
  "\u2581pa\u00eds": 6304,
  "\u0441\u043a\u0430\u0442\u0430": 6305,
  "\u0a88": 6306,
  "mit": 6307,
  "\u2581cat": 6308,
  "\u2581bre": 6309,
  "IV": 6310,
  "\u2581100%": 6311,
  "\u2581\u043d\u0430\u0458": 6312,
  "\u2581kale": 6313,
  "\u2581daripada": 6314,
  "\u2581Land": 6315,
  "\u2581\u0bb5\u0bbf": 6316,
  "osh": 6317,
  "\u2581Pi": 6318,
  "\u2581Fl": 6319,
  "\u2581Af": 6320,
  "\u2581\u0b92\u0bb0\u0bc1": 6321,
  "\u2581anti": 6322,
  "n\u00e9ho": 6323,
  "ble": 6324,
  "orm": 6325,
  "\u0442\u044d\u0439": 6326,
  "isia": 6327,
  "\u2581\uc0ac": 6328,
  "\u2581\u00d3": 6329,
  "\u2581csak": 6330,
  "\u2581\u00f8": 6331,
  "\u043a\u0440\u0430": 6332,
  "\u2581vr": 6333,
  "\u2581heeft": 6334,
  "\u2581\u03c0\u03b1": 6335,
  "\u258113.": 6336,
  "\u2581\u03b5\u03ba": 6337,
  ".\u201c": 6338,
  "\u2581n\u00ean": 6339,
  "oa": 6340,
  "\u0d3f\u0d32\u0d4d": 6341,
  "\u2581\u043e\u043d\u0438": 6342,
  "AA": 6343,
  "\u7279": 6344,
  "\u2581suk": 6345,
  "OP": 6346,
  "ener": 6347,
  "\u09cd\u09af": 6348,
  "\u7406": 6349,
  "\u09b9": 6350,
  "\u2581Nor": 6351,
  "$": 6352,
  "ello": 6353,
  "\u015b\u0107": 6354,
  "\u2581g\u00ebtt": 6355,
  "\u1796": 6356,
  "\u0a32\u0a3e": 6357,
  "nego": 6358,
  "\u2581\u1260\u1218": 6359,
  "\u2581tras": 6360,
  "umo": 6361,
  "\u2581polo": 6362,
  "\u2581\u00f6ver": 6363,
  "\u057e\u0578\u0582\u0574": 6364,
  "\u2581sag": 6365,
  "\u2581Ste": 6366,
  "\u2581\u0569": 6367,
  "\u2581chat": 6368,
  "\u2581\u057f": 6369,
  "\u2581\u0906\u091c": 6370,
  "\u2581\u0ab9": 6371,
  "\u2581nije": 6372,
  "\u2581bus": 6373,
  "\u2581\u0622\u067e": 6374,
  "\u0aa8\u0ac1\u0a82": 6375,
  "\u2581grande": 6376,
  "\u6570": 6377,
  "dal": 6378,
  "\uc870": 6379,
  "\u0499\u04d9": 6380,
  "\u2581l\u00fd": 6381,
  "\u2581Gi": 6382,
  "\u2581gol": 6383,
  "\u2581My": 6384,
  "\u2581\u0430\u0439": 6385,
  "\u0578\u0576": 6386,
  "\u0159\u00ed": 6387,
  "\u2581\u0447\u0442\u043e\u0431\u044b": 6388,
  "\u2581\u0627\u0644\u062f": 6389,
  "\u25810.": 6390,
  "\u0634\u062a": 6391,
  "\u2581\u0574\u056b": 6392,
  "\u2581aka": 6393,
  "\u00e1ban": 6394,
  "\u00ebve": 6395,
  "\u2581\u0418\u0437": 6396,
  "yw": 6397,
  "aban": 6398,
  "\u2581T\u00e1": 6399,
  "wak": 6400,
  "\u2581\u04d8": 6401,
  "kii": 6402,
  "\u2581mos": 6403,
  "\u2581semua": 6404,
  "enza": 6405,
  "\u10dd\u10e0": 6406,
  "eket": 6407,
  "\u0627\u0644\u064a": 6408,
  "\u2581sed": 6409,
  "\u2581email": 6410,
  "\u2581\u09ab": 6411,
  "\u1794\u17d2\u179a": 6412,
  "\u2581\ube44": 6413,
  "\u2581\u0939\u093e": 6414,
  "\u5c31\u662f": 6415,
  "\u0440\u0430\u0442": 6416,
  "\u0651\u064e": 6417,
  "\u2581lak": 6418,
  "\u0645\u0644": 6419,
  "esu": 6420,
  "lj": 6421,
  "opp": 6422,
  "\u0632\u06cc": 6423,
  "\u03c1\u03cc": 6424,
  "\u03b9\u03ba\u03ac": 6425,
  "\u0391": 6426,
  "\u2581frem": 6427,
  "\u2581alles": 6428,
  "no\u015bci": 6429,
  "\u2581\u0928\u093e": 6430,
  "\u957f": 6431,
  "\u2581c\u00e1ch": 6432,
  "rer": 6433,
  "\u628a": 6434,
  "\u2581v\u00f5i": 6435,
  "nh": 6436,
  "\u2581ost": 6437,
  "\u2581Ali": 6438,
  "\u2581\u0cb0": 6439,
  "\u0432\u0430\u0442\u0430": 6440,
  "\u062a\u0647": 6441,
  "\u2581\u05de\u05e1": 6442,
  "\u043b\u0430\u0439": 6443,
  "\u0e41": 6444,
  "\u2581\u043a\u043e\u0458\u0430": 6445,
  "\u0642\u0629": 6446,
  "anj": 6447,
  "\u2581bh": 6448,
  "\u102f": 6449,
  "\u2581\u0aa4\u0acb": 6450,
  "\uc6d4": 6451,
  "\u2581Ger": 6452,
  "\u2581\u03ac": 6453,
  "inan": 6454,
  "\u2581refer": 6455,
  "\u10e4": 6456,
  "\u2581mill": 6457,
  "\u2581b\u1ee5": 6458,
  "\u2581\ud83d\ude42": 6459,
  "\u00ef": 6460,
  "\u70ba": 6461,
  "\u03b8\u03b5": 6462,
  "\u2581ech": 6463,
  "\u0b1f\u0b3f": 6464,
  "\u2581\u0a28\u0a3e\u0a32": 6465,
  "inda": 6466,
  "\u30a4": 6467,
  "\u1784": 6468,
  "\u0cb0\u0cbf": 6469,
  "\u2581situ": 6470,
  "\u2581wax": 6471,
  "\u2581\u043a\u0430\u043e": 6472,
  "\u2581moun": 6473,
  "\u0cbf\u0ca8": 6474,
  "\u05e2\u05d4": 6475,
  "\u2581Bas": 6476,
  "\u518d": 6477,
  "\u2581lugar": 6478,
  "\u2581blev": 6479,
  "ley": 6480,
  "\u2581\u0aaa\u0acd\u0ab0": 6481,
  "\u6253": 6482,
  "\u2581seb": 6483,
  "\u00e1sa": 6484,
  "\u2581\u043e\u0440": 6485,
  "\u3081": 6486,
  "\u2581\u0574": 6487,
  "\u2581\u1ecb": 6488,
  "\u8eab": 6489,
  "\u03bf\u03c5\u03c2": 6490,
  "\u2581secara": 6491,
  "\u057a": 6492,
  "\u60c5": 6493,
  "\u2581\uc788\uc2b5\ub2c8\ub2e4": 6494,
  "\u2581niin": 6495,
  "\u2581kem": 6496,
  "\u00cd": 6497,
  "\u2581biti": 6498,
  "\u258115.": 6499,
  "38": 6500,
  "title": 6501,
  "\u09bf\u09a4": 6502,
  "\u2581d\u1ecb": 6503,
  "````````````````": 6504,
  "abu": 6505,
  "\u03c1\u03b5": 6506,
  "\u2581\u0b2e": 6507,
  "\u2581list": 6508,
  "\u2581\u0642\u0631\u0627\u0631": 6509,
  "JA": 6510,
  "eksi": 6511,
  "ini\u0173": 6512,
  "\u2581\u05de\u05ea": 6513,
  "\u2581\u0a06": 6514,
  "\u0441\u043a\u043e\u0433\u043e": 6515,
  "\ub2e8": 6516,
  "\u2581waxaa": 6517,
  "\u2581kultur": 6518,
  "\u2581jog": 6519,
  "igu": 6520,
  "\u2581vz": 6521,
  "\u2581questo": 6522,
  "nat": 6523,
  "\u0ab9": 6524,
  "\u2581Fre": 6525,
  "\u0d2f\u0d3f\u0d32\u0d4d": 6526,
  "\u043d\u043e\u0442\u043e": 6527,
  "\u2581base": 6528,
  "\u2581engem": 6529,
  "ischen": 6530,
  "\u2581Jak": 6531,
  "\u2581\u12c8": 6532,
  "\u2581gant": 6533,
  "\u2581xe": 6534,
  "\u0107e": 6535,
  "\u2581niya": 6536,
  "\u2581band": 6537,
  "\u2581\u0b89": 6538,
  "\u2581Sin": 6539,
  "\u2581Hy": 6540,
  "\u1229": 6541,
  "OD": 6542,
  "\u2581\u0454": 6543,
  "tas": 6544,
  "-5": 6545,
  "iras": 6546,
  "\u2581Ut": 6547,
  "\u2581Sar": 6548,
  "\u0ab5\u0ac0": 6549,
  "\u0e87": 6550,
  "\u1019\u103a\u102c\u1038": 6551,
  "\u2581\u0442\u0440\u0430": 6552,
  "48": 6553,
  "\u2581muy": 6554,
  "\u2581\uae30": 6555,
  "\u2581\u041f\u0440\u0435": 6556,
  "\u2581F\u00f6r": 6557,
  "\u2581\u0cae\u0ca4\u0ccd\u0ca4\u0cc1": 6558,
  "\u178a": 6559,
  "larda": 6560,
  "\u043d\u0438\u0435\u0442\u043e": 6561,
  "\u043f\u0435\u0440": 6562,
  "\u0dd4\u0dc0": 6563,
  "\u045a\u0443": 6564,
  "\u2581tok": 6565,
  "\u0e49\u0e32": 6566,
  "\u2581zen": 6567,
  "\u2581\u03c6": 6568,
  "\u10d0\u10e0\u10d8": 6569,
  "\u2581ima": 6570,
  "\u122a": 6571,
  "elsen": 6572,
  "\u2581tr\u01b0\u1eddng": 6573,
  "\u2581\u043a\u04af": 6574,
  "\u0633\u062a\u0627\u0646": 6575,
  "\u2581mab": 6576,
  "ova\u0165": 6577,
  "skih": 6578,
  "\u122e": 6579,
  "\u6bd4": 6580,
  "\u2581nor": 6581,
  "\u6587": 6582,
  "\uc120": 6583,
  "\u2581Europa": 6584,
  "\u0432\u043e\u0439": 6585,
  "\u00edv": 6586,
  "\u2581c\u00f2n": 6587,
  "\u2581\u0570\u0565\u057f": 6588,
  "\u2581hasta": 6589,
  "iera": 6590,
  "\u2581\u0d0e\u0d28\u0d4d\u0d28": 6591,
  "\u010den": 6592,
  "\u2581jau": 6593,
  "\u2581\u0627\u06af\u0631": 6594,
  "\u0434\u043e\u043c": 6595,
  "\u2581????": 6596,
  "into": 6597,
  "\u0baf": 6598,
  "zet": 6599,
  "\u2581wenn": 6600,
  "\u099f\u09bf": 6601,
  "\u1260\u1275": 6602,
  "\u2581Del": 6603,
  "\u2581\u0b38\u0b47": 6604,
  "8)": 6605,
  "\u0432\u044b\u0445": 6606,
  "\u0e1c\u0e39\u0e49": 6607,
  "\u2581\u0924\u094d\u092f\u093e": 6608,
  "\u52a0": 6609,
  "\u2581bah": 6610,
  "\u12cd\u1295": 6611,
  "\u2581\u043a\u043e\u0438": 6612,
  "\u2581\u0411\u0435": 6613,
  "atta": 6614,
  "\u2581\u03bc\u03b9\u03b1": 6615,
  "\u0bbf\u0bb2\u0bcd": 6616,
  "\u0e43\u0e08": 6617,
  "chten": 6618,
  "\u02bb": 6619,
  "\u2581\u06a9\u0631\u0646\u06d2": 6620,
  "anza": 6621,
  "\u00f3d": 6622,
  "\u0161u": 6623,
  "\u0639\u062a": 6624,
  "\u2581\u10e2": 6625,
  "amh": 6626,
  "\u0627\u0646\u0648": 6627,
  "\u2581pem": 6628,
  "\u2581\u067e\u06cc\u0634": 6629,
  "\u2581cookies": 6630,
  "\u2581mundo": 6631,
  "\u2581Film": 6632,
  "\u0d19\u0d4d\u0d19\u0d33\u0d4d": 6633,
  "\u2581\u0111i\u1ec1u": 6634,
  "akh": 6635,
  "\u2581uno": 6636,
  "\u2581model": 6637,
  "\u00fb": 6638,
  "\u2581pela": 6639,
  "ihin": 6640,
  "\u2581inv": 6641,
  "\u04d9\u0440": 6642,
  "\u2581durante": 6643,
  "\u092c\u093e\u091f": 6644,
  "lt": 6645,
  "\u2581Windows": 6646,
  "\u0d41\u0d15": 6647,
  "atz": 6648,
  "entu": 6649,
  "\u0cc6\u0caf": 6650,
  "\u2581mabalin": 6651,
  "\u2581\u0986": 6652,
  "\u2581Can": 6653,
  "\u043c\u0435\u0442": 6654,
  "\u2581Ay": 6655,
  "\u2581gang": 6656,
  "\u3046": 6657,
  "\u2581\u0435\u0441\u0442\u044c": 6658,
  "\u0648\u0632": 6659,
  "\u0c95\u0ccd": 6660,
  "\u10d4\u10d1\u10d8\u10d7": 6661,
  "\uc9c4": 6662,
  "\u0d3f\u0d1a\u0d4d\u0d1a": 6663,
  "\u2581\u1000": 6664,
  "\u043d\u0433": 6665,
  "\u2581\u10db\u10d4": 6666,
  "\u00d6": 6667,
  "\u0e84": 6668,
  "\u05d5\u05de": 6669,
  "\u2581ieu": 6670,
  "\u2581\u0932\u093e\u0917\u093f": 6671,
  "\u2581\u0915\u093e\u092e": 6672,
  "\u1014\u1039\u1038": 6673,
  "bel": 6674,
  "\u2581tapi": 6675,
  "\u2581God": 6676,
  "\u5b89": 6677,
  "\u0902\u0921": 6678,
  "\u0ca4\u0cbf": 6679,
  "\u6ca1\u6709": 6680,
  "\u0448\u0435\u043d": 6681,
  "\u53e3": 6682,
  "\u2581Sab": 6683,
  "\u2581\u0a24\u0a4b\u0a02": 6684,
  "\u0d2f\u0d41\u0d02": 6685,
  "uman": 6686,
  "\u2581bem": 6687,
  "\u2581r\u1ea5t": 6688,
  "\u2581\u0d08": 6689,
  "\u2581\u0caa\u0ccd\u0cb0": 6690,
  "\u2581\u0ab5": 6691,
  "\u2581th\u1eddi": 6692,
  "\u2581z\u00e1": 6693,
  "\u2581\u0394": 6694,
  "\u2581\u05d5\u05d5\u05d0\u05e1": 6695,
  "\u0dc5": 6696,
  "ahl": 6697,
  "sk\u00e9": 6698,
  "\u0b95\u0bb3\u0bcd": 6699,
  "\u05d5\u05d7": 6700,
  "\u5176": 6701,
  "\u0101t": 6702,
  "bir": 6703,
  "\u0d28\u0d3f": 6704,
  "sku": 6705,
  "\u2581\u1015": 6706,
  "\u043b\u043e\u0441\u044c": 6707,
  "\u2581\u0ec4\u0e94\u0ec9": 6708,
  "\u2581May": 6709,
  "\u5c71": 6710,
  "\u2581Omrop": 6711,
  "inden": 6712,
  "\u2581Android": 6713,
  "\u0499\u0435": 6714,
  "cial": 6715,
  "\u2581\u0e40": 6716,
  "\u2581mur": 6717,
  "oca": 6718,
  "\u897f": 6719,
  "\u2581rem": 6720,
  "was": 6721,
  "\u0daf\u0dcf": 6722,
  "\u2581Nag": 6723,
  "\u2581suka": 6724,
  "100": 6725,
  "\u05d0\u05e8": 6726,
  "\u2581,,": 6727,
  "\u0456\u043d": 6728,
  "\u0257": 6729,
  "\u2581LA": 6730,
  "\u2581kali": 6731,
  "\u2581viz": 6732,
  "ningar": 6733,
  "\u0e99": 6734,
  "\u2581\u09b6": 6735,
  "usan": 6736,
  "\u2581\u0630": 6737,
  ".:": 6738,
  "\u0a9a": 6739,
  "\u10d4\u10d1\u10e3\u10da\u10d8": 6740,
  "\u0e14\u0e49\u0e27\u0e22": 6741,
  "\u2581durch": 6742,
  "\u2581ito": 6743,
  "\u2581Pos": 6744,
  "\u2581\u03b3": 6745,
  "ilen": 6746,
  "\u2581\u0643\u0644": 6747,
  "\u2581\u092f\u0947": 6748,
  "enge": 6749,
  "\u0434\u043d\u0438": 6750,
  "\u2581c\u01a1": 6751,
  "\u258137": 6752,
  "\u2581prop": 6753,
  "amen": 6754,
  "\u2581nim": 6755,
  "\u2581\u062e\u0648": 6756,
  "\u2581\u00cd": 6757,
  "\u2581\u0d28": 6758,
  "\u0446\u0443": 6759,
  "\u2581Mai": 6760,
  "\u03c3\u03b5\u03b9\u03c2": 6761,
  "\u2581hak": 6762,
  "\u2581theo": 6763,
  "\u2581aya": 6764,
  "col": 6765,
  "\u0441\u043a\u0443": 6766,
  "\u0441\u0442\u0443": 6767,
  "\u2581euro": 6768,
  "hor": 6769,
  "\u2581masa": 6770,
  "\u2581shum\u00eb": 6771,
  "\u0dba\u0da7": 6772,
  "\u2581\u1230": 6773,
  "\u2581\u0a97": 6774,
  "\u2581\u0926\u0947": 6775,
  "\u2581get": 6776,
  "\u05e2\u05d9": 6777,
  "\u2581fol": 6778,
  "\u2581\u03c7": 6779,
  "\u2581kra": 6780,
  "iger": 6781,
  "\u2581\u0447\u0430\u0441": 6782,
  "\u0a3f": 6783,
  "\u2581\u041e\u0442": 6784,
  "\u2581\u03b1\u03bd": 6785,
  "\u0561\u057c": 6786,
  "\u0dad\u0dd4": 6787,
  ",...": 6788,
  "\u53c8": 6789,
  "\u00c4": 6790,
  "\u258155": 6791,
  "\u044d\u044d\u0440": 6792,
  "\u2581zaman": 6793,
  "\u0581": 6794,
  "\u03c4\u03b9\u03ba\u03ac": 6795,
  "\u2581\u0111\u1ed3ng": 6796,
  "ilik": 6797,
  "\u0921\u0940": 6798,
  "ote": 6799,
  "\u2581sik": 6800,
  "\u03b1\u03c3": 6801,
  "\u5148": 6802,
  "\u2581Mit": 6803,
  "\u2581\u041a\u0443": 6804,
  "\u2581merupakan": 6805,
  "rak": 6806,
  "\u2581Este": 6807,
  "\u1031\u1014": 6808,
  "\u2581kub": 6809,
  "\u2581Copyright": 6810,
  "\u2581\u0906\u092a": 6811,
  "\u2581pelo": 6812,
  "\u04e9\u043d": 6813,
  "uq": 6814,
  "\u2581dist": 6815,
  "\u2581arg": 6816,
  ".[4]": 6817,
  "\u2581zab": 6818,
  "\u8272": 6819,
  "\u2581ting": 6820,
  "\u2581//": 6821,
  "\u2581\u043a\u04e9": 6822,
  "\u0bbe\u0bb0\u0bcd": 6823,
  "\u2581\ubd80": 6824,
  "san": 6825,
  "\u2581\u0440": 6826,
  "lak": 6827,
  "n\u0105": 6828,
  "98": 6829,
  "\u2581\u091c\u094b": 6830,
  "\u2581sir": 6831,
  "\u043b\u043e\u0433": 6832,
  "\u2581\u0b28": 6833,
  "\u0432\u0430\u043b": 6834,
  "\u2581\u00bf": 6835,
  "\u2581\u0647\u0630\u0647": 6836,
  "oks": 6837,
  "\u2581\u0432\u0430\u0441": 6838,
  "\u2581coma": 6839,
  "\u2581\u0441\u0435\u0431\u0435": 6840,
  "oku": 6841,
  "UK": 6842,
  "\u093e\u0930\u093e": 6843,
  "ciu": 6844,
  "owo": 6845,
  "\u2581\u044d\u0442\u043e\u043c": 6846,
  "alta": 6847,
  "\u2581Res": 6848,
  "\u2581\u0b2c\u0b3f": 6849,
  "nica": 6850,
  "\u0b9f\u0bbf": 6851,
  "\u2581\uc911": 6852,
  "https": 6853,
  "l\u00e9": 6854,
  "\u258148": 6855,
  "\u2581baik": 6856,
  "ple": 6857,
  "\u0430\u0440\u0430": 6858,
  "\u2581\u0dad": 6859,
  "\u2581\u0431\u0430\u0439\u0433\u0430\u0430": 6860,
  "\u2581aw\u1ecdn": 6861,
  "\u6216": 6862,
  "\u043b\u0435\u0439": 6863,
  "\u2581\uc18c": 6864,
  "\u2581ugu": 6865,
  "\u2581oku": 6866,
  "\u2581\u10e8": 6867,
  "\u2581\u043f\u043e\u043a\u0430": 6868,
  "\u2581\u062a\u0645": 6869,
  "\u2581cette": 6870,
  "alah": 6871,
  "\u2581\u0627\u0646\u062f": 6872,
  "\u0d41\u0d02": 6873,
  "skap": 6874,
  "vor": 6875,
  "\u2581jan": 6876,
  "oldid": 6877,
  "\u2581Ok": 6878,
  "\u2581Bur": 6879,
  "\u2581zam": 6880,
  "\u2581lle": 6881,
  "\u2581\u10d4\u10e1": 6882,
  "\u25815,": 6883,
  "\u2581geb": 6884,
  "\u03ad\u03c2": 6885,
  "\u2581\u0db6": 6886,
  "-4": 6887,
  "\u2581\u1798": 6888,
  "\u2581weer": 6889,
  ",\u201c": 6890,
  "\u2581baru": 6891,
  "olla": 6892,
  "\u2581projekt": 6893,
  "\u0bb8\u0bcd": 6894,
  "\u2581voc\u00ea": 6895,
  "\u2581\u043f\u0443": 6896,
  "\u3060": 6897,
  "\u91cf": 6898,
  "\u2581nye": 6899,
  "\u0446\u0438\u0458\u0435": 6900,
  "36": 6901,
  "tet": 6902,
  "\u2581\u062f\u06d0": 6903,
  "\u2581\u0925\u093e": 6904,
  "\u2581partir": 6905,
  "\u2581fait": 6906,
  "\u2581\u0b1c": 6907,
  "\u05d3\u05d4": 6908,
  "liche": 6909,
  "\u65af": 6910,
  "\u0151l": 6911,
  "\u0d28\u0d4d\u0d31\u0d46": 6912,
  "\u2581lim": 6913,
  "\u0e34\u0e19": 6914,
  "\u2581tum": 6915,
  "\u0441\u043b\u0430": 6916,
  "\u2581politik": 6917,
  "ossa": 6918,
  "\u05e0\u05d3": 6919,
  "\u2581\u0533": 6920,
  "\u2581Kh": 6921,
  "\u2581\u0441\u0442\u0435": 6922,
  "\u2581lai": 6923,
  "\u2581\u09a8": 6924,
  "\u2581osob": 6925,
  "\u094d\u0930": 6926,
  "\u2581hunn": 6927,
  "\u05d5\u05d5\u05d9": 6928,
  "\u0445\u043e\u0434": 6929,
  "\u2581gab": 6930,
  "\u0584\u056b": 6931,
  "\u2581\u06a9\u0646\u06cc\u062f": 6932,
  "\u2581pode": 6933,
  "\u2581wurde": 6934,
  "\u2581th\u1ef1c": 6935,
  "\u308c": 6936,
  "\u00d3": 6937,
  "\u2581\u06c1\u06cc\u06ba\u06d4": 6938,
  "kus": 6939,
  "\u2581h\u00ecnh": 6940,
  "\u2581pob": 6941,
  "\u05e7\u05d4": 6942,
  "\u2581\u0d9a\u0dca": 6943,
  "\u2581\u0440\u0438": 6944,
  "\u043d\u0430\u043b": 6945,
  "stvo": 6946,
  "\u2581cam": 6947,
  "\u258118.": 6948,
  "\u2581kons": 6949,
  "\u2581Uk": 6950,
  "urile": 6951,
  "\u5de5": 6952,
  "arg": 6953,
  "\u2581\u062a\u0646": 6954,
  "\u04d9\u0442": 6955,
  "xt": 6956,
  "nega": 6957,
  "\u0dd0": 6958,
  "\u0441\u044b\u043d": 6959,
  "\u0416": 6960,
  "\u500b": 6961,
  "\u0446\u0456\u044f": 6962,
  "\u2581\u09a4": 6963,
  "angi": 6964,
  "\u0444\u0435": 6965,
  "\u9577": 6966,
  "stand": 6967,
  "\u0b30\u0b4d": 6968,
  "\u2581\u0628\u064a\u0646": 6969,
  "d\u0131r": 6970,
  "\u2581\u0ab5\u0abf": 6971,
  "\u2581motor": 6972,
  "\u2581Dom": 6973,
  "\u2581\u1235": 6974,
  "\u2581Mod": 6975,
  "\u2581\u0445\u0430\u043b\u044b\u04a1": 6976,
  "\u0445\u0443": 6977,
  "\u258114.": 6978,
  "\u2581\u091b\u0928\u094d": 6979,
  "\u2581\u041c\u0435": 6980,
  "\u5143": 6981,
  "bb": 6982,
  "\u2581Cal": 6983,
  "\u2581UN": 6984,
  "\u25810,": 6985,
  "\u00e1ra": 6986,
  "\u2581link": 6987,
  "\u2581Tar": 6988,
  "\u2581waxa": 6989,
  "\u2581\u0448\u0438": 6990,
  "ikh": 6991,
  "\u179c": 6992,
  "\u2581Mad": 6993,
  "\u021b": 6994,
  "\u043a\u043e\u0432\u0430": 6995,
  "\u2581Malaysia": 6996,
  "\u2581Ri": 6997,
  "\u0439\u0442\u0435": 6998,
  "\u090f": 6999,
  "\u2581kim": 7000,
  "\u2581eh": 7001,
  "\u2581goed": 7002,
  "ape": 7003,
  "\u8a00": 7004,
  "\u0e28": 7005,
  "\u00f6s": 7006,
  "cij": 7007,
  "\u0eb1\u0e94": 7008,
  "\u2581t\u00e4": 7009,
  "rib": 7010,
  "\u2581bank": 7011,
  "\u25812017.": 7012,
  "\u2581\u0a28": 7013,
  "\u05d5\u05e2": 7014,
  "\u2581camp": 7015,
  "\uacf5": 7016,
  "\u0627\u0632": 7017,
  "\u0161\u010d": 7018,
  "\u2581\u0628\u0627\u0631": 7019,
  "\u2581\u0d8b": 7020,
  "egen": 7021,
  "ishi": 7022,
  "\u10ef": 7023,
  "\u2581mae": 7024,
  "\u042d": 7025,
  "\u0b3f\u0b15": 7026,
  "\u2581\u043d": 7027,
  "\u0b36": 7028,
  "\u6c11": 7029,
  "antu": 7030,
  "\u0565\u056c\u0578\u0582": 7031,
  "\u2581pis": 7032,
  "\u0b9f\u0bc1": 7033,
  "like": 7034,
  "\u2581\u10e5": 7035,
  "nice": 7036,
  "\u17b6\u1799": 7037,
  "\u2581t\u00e9": 7038,
  "ube": 7039,
  "\u2581\u05d2\u05dd": 7040,
  "\u2581jan\u00eb": 7041,
  "\u05dc\u05d0": 7042,
  "\u5546": 7043,
  "\u2581Nem": 7044,
  "\u7acb": 7045,
  "\u2581\u0a1c": 7046,
  "\u258120.": 7047,
  "\u2581kontakt": 7048,
  "78": 7049,
  "\u0dbb\u0dd4": 7050,
  "\u2581yaz": 7051,
  "\u4e16\u754c": 7052,
  "\u2581\u0562": 7053,
  "\u0442\u0456\u0432": 7054,
  "\u2581\u043c\u0430\u0439": 7055,
  "\u2581\u0e82\u0ead\u0e87": 7056,
  "lega": 7057,
  "ulla": 7058,
  "\u2581muito": 7059,
  "\u7ba1\u7406": 7060,
  "\u2581grad": 7061,
  "agen": 7062,
  "\u2581Fil": 7063,
  "\u2581\u0a1a": 7064,
  "\u09be\u09ae": 7065,
  "\u0432\u0438\u0442\u0435": 7066,
  "\u2581l\u00e9": 7067,
  "\u2581utiliz": 7068,
  "\u2581\u10de": 7069,
  "bur": 7070,
  "\u3057\u3066\u3044\u308b": 7071,
  "\u2581kamp": 7072,
  "\u2581\u1791": 7073,
  "\u2581AL": 7074,
  "\u2581Kl": 7075,
  "\u2581\u0645\u062c": 7076,
  "\u2581Rom": 7077,
  "\u2581\u0442\u0430\u043a\u0436\u0435": 7078,
  "uen": 7079,
  "\u0441\u043a\u043e\u043c": 7080,
  "\u00f0u": 7081,
  "\u2581total": 7082,
  "\u0161k": 7083,
  "\u0e32\u0e01": 7084,
  "chte": 7085,
  "\u258108": 7086,
  "\u2581Non": 7087,
  "\u30ab": 7088,
  "\u03bf\u03c5\u03bc\u03b5": 7089,
  "\u2581ihe": 7090,
  "\u0d3e\u0d28\u0d4d": 7091,
  "\u10d7\u10d0": 7092,
  "\u2581m\u00e9g": 7093,
  "\u03c4\u03b9\u03ba\u03cc": 7094,
  "\u1040": 7095,
  ":00": 7096,
  "\u2581Ban": 7097,
  "\u0aa7": 7098,
  "rod": 7099,
  "\u610f": 7100,
  "\u2581vi\u00ean": 7101,
  "\u2581AM": 7102,
  "vid": 7103,
  "\u0561\u057e\u0578\u0580": 7104,
  "\u2581face": 7105,
  "\u0e82": 7106,
  "\u8001": 7107,
  "\u0b30\u0b41": 7108,
  "\u2581kort": 7109,
  "\u03ae\u03c2": 7110,
  "\u5f00": 7111,
  "cm": 7112,
  "\u0441\u0435\u043d": 7113,
  "\u2581\u101c": 7114,
  "\u05dc\u05d4": 7115,
  "\u0441\u044d\u043d": 7116,
  "\u2581\u0dc3\u0dc4": 7117,
  "\u043b\u044c\u043d\u043e": 7118,
  "\u2581b\u00e5de": 7119,
  "\u03b6": 7120,
  "\u03b5\u03af": 7121,
  "\u2581Red": 7122,
  "\u0562": 7123,
  "amy": 7124,
  "\u2581stra": 7125,
  "\u2581\u043f\u0440\u0430\u0432\u0438": 7126,
  "arak": 7127,
  "\u0bb2\u0bc8": 7128,
  "\u533a": 7129,
  "\u0e17\u0e32\u0e07": 7130,
  "\u0da9": 7131,
  "atik": 7132,
  "\u2581fr\u00e1": 7133,
  "\u2581kadar": 7134,
  "9)": 7135,
  "\u2581\u0627\u0644\u0630\u064a": 7136,
  "\u0cac": 7137,
  "\u0434\u044b\u049b": 7138,
  "\uc704": 7139,
  "\u2581interes": 7140,
  "aru": 7141,
  "\u2581\u12e8\u12a0": 7142,
  "\u2581Cas": 7143,
  "\u2581region": 7144,
  "\u043d\u043e\u0432\u0430": 7145,
  "\u2581plat": 7146,
  "\u2581godt": 7147,
  "\u2581\u1787\u17b6": 7148,
  "\u2581mint": 7149,
  "\u05d1\u05d4": 7150,
  "\u00e9d": 7151,
  "\uacc4": 7152,
  "\ubbf8": 7153,
  "\u0142em": 7154,
  "\u2581k\u00f6": 7155,
  "\u2581sj": 7156,
  "\u2581S\u00e5": 7157,
  "\u2581bers": 7158,
  "\u2581n\u00e5": 7159,
  "urg": 7160,
  "\u2581importante": 7161,
  "\u2581Dis": 7162,
  "\u0440\u043e\u0442": 7163,
  "tua": 7164,
  "\u2581\u0441\u043f\u0430": 7165,
  "erna": 7166,
  "\u2581\u062d\u0627\u0644": 7167,
  "\u0bbe\u0ba9": 7168,
  "wch": 7169,
  "\u2581bug": 7170,
  "\u2581\u0628\u0627\u06cc\u062f": 7171,
  "obo": 7172,
  "\u2581jen": 7173,
  "\u2581\u0a38\u0a3f\u0a70\u0a18": 7174,
  "\u258119.": 7175,
  "\u09a3": 7176,
  "\u76f8": 7177,
  "\u30ec": 7178,
  "cr": 7179,
  "\u0d1f\u0d3f": 7180,
  "iye": 7181,
  "\u09be\u09b8": 7182,
  "\u2581Blog": 7183,
  "\u2581bere": 7184,
  "\u1276": 7185,
  "\u2581kh\u00e1ch": 7186,
  "\u2581salah": 7187,
  "\u2581dus": 7188,
  "ege": 7189,
  "\u2581vend": 7190,
  "\u0442\u043a\u0430": 7191,
  "idir": 7192,
  "\u04a1\u0430": 7193,
  "\u0432\u043e\u0433\u043e": 7194,
  "\u0cb6": 7195,
  "\u2581\uc790": 7196,
  "\u2581\uc624": 7197,
  "\u0bc8\u0baf": 7198,
  "\u30e9": 7199,
  "\u10e9": 7200,
  "vy": 7201,
  "\u2581hafa": 7202,
  "unun": 7203,
  "\u2581\u067f\u0648": 7204,
  "\u2581tamin": 7205,
  "\u2581\u05de\u05d7": 7206,
  "\u0561\u0566": 7207,
  "bit": 7208,
  "\u2581Wir": 7209,
  "\u2581Tel": 7210,
  "\u2581\u0645\u062f": 7211,
  "\u2581\uc720": 7212,
  "\u2581svar": 7213,
  "\u2581mesmo": 7214,
  "\u2581Vol": 7215,
  "\u2581kini": 7216,
  "\u2581vide": 7217,
  "\u2581gibi": 7218,
  "nit": 7219,
  "\u2581\ub2e4": 7220,
  "\u2581\u0dc4": 7221,
  "\u77e5": 7222,
  "\u2581pemb": 7223,
  "\u2581pes": 7224,
  "\u2581dor": 7225,
  "\u2581\u04af": 7226,
  "\u2581\u010di": 7227,
  "\u2581Islam": 7228,
  "\u043d\u043e\u0457": 7229,
  "\u2581(5": 7230,
  "\u2581\u0e21": 7231,
  "\u0432\u0438\u0445": 7232,
  "\u2581sana": 7233,
  "\u2581prima": 7234,
  "oten": 7235,
  "\u2581intr": 7236,
  "\u0442\u043d\u0438": 7237,
  "usti": 7238,
  "udu": 7239,
  "\u52a8": 7240,
  "\u2581\u10dc": 7241,
  "\u2581\u06a9\u0645": 7242,
  "\u2581saja": 7243,
  "\u0433\u043b\u0430": 7244,
  "\u2581organ": 7245,
  "\u2581\u041b\u0438": 7246,
  "\u2581kama": 7247,
  "ative": 7248,
  "\u2581dop": 7249,
  "\u2581\u0cae\u0cbe\u0ca1": 7250,
  "\u2581siden": 7251,
  "\u0cb0\u0cc6": 7252,
  "\u2581porno": 7253,
  "\u2581v\u1ee5": 7254,
  "AZ": 7255,
  "\u2581\u0442\u0438\u043f": 7256,
  "\u2581\u0a07\u0a38": 7257,
  "\u2581has": 7258,
  "\u2581198": 7259,
  "\u2581c\u1ea3": 7260,
  "\u2581\u0532": 7261,
  "\u0531": 7262,
  "\u2581\u043e\u043d\u0430": 7263,
  "pel": 7264,
  "\u2581auto": 7265,
  "\u011fi": 7266,
  "\u3002\u201d": 7267,
  "\u04bb\u0435": 7268,
  "\u00dc": 7269,
  "lie": 7270,
  "\u2581Sex": 7271,
  "\u2581ea": 7272,
  "skog": 7273,
  "istes": 7274,
  "owej": 7275,
  "\u2581\u0924\u0947": 7276,
  "vik": 7277,
  "\u2581\u0a2a\u0a4d\u0a30": 7278,
  "\u2581Ale": 7279,
  "yb": 7280,
  "\u901a": 7281,
  "fon": 7282,
  "\u2581ph\u1ea9m": 7283,
  "gas": 7284,
  "\u2581cs": 7285,
  "\u0dd9\u0db1\u0dca": 7286,
  "\u2581tanto": 7287,
  "\u2581SP": 7288,
  "\u0426": 7289,
  "IO": 7290,
  "\u0259k": 7291,
  "\u2581\u00f2": 7292,
  "\u2581s\u00f3": 7293,
  "\u2581\u0cb5": 7294,
  "\u0bb4": 7295,
  "\uc138": 7296,
  "\uc57c": 7297,
  "\u010di\u0173": 7298,
  "pal": 7299,
  "\u0daf\u0dd3": 7300,
  "\u0e43\u0e0a\u0e49": 7301,
  "\u2581dev": 7302,
  "\u2581\u0a24": 7303,
  "\u0dd6": 7304,
  "\u2581present": 7305,
  "itate": 7306,
  "\u2581\u041d\u0438": 7307,
  "tra": 7308,
  "\u2581joka": 7309,
  "WA": 7310,
  "\u2581Pu": 7311,
  "\u0644\u0629": 7312,
  "\u093e\u0930\u0940": 7313,
  "\u8f66": 7314,
  "\u2581vie": 7315,
  "\u2581oh": 7316,
  "\u258117.": 7317,
  "oth": 7318,
  "\u2581\u0b2a\u0b4d\u0b30": 7319,
  "adau": 7320,
  "\u2581P\u00e5": 7321,
  "\u2581naz": 7322,
  "\u2581Wat": 7323,
  "imento": 7324,
  "\uad00": 7325,
  "\u2581Mari": 7326,
  "\u2581\u10d5": 7327,
  "\u2581\u0b2a\u0b3e\u0b07\u0b01": 7328,
  "l\u00e1": 7329,
  "\u0436\u0435\u043d": 7330,
  "\u2581\u05de\u05e9": 7331,
  "\u2581\u041a\u0438": 7332,
  "wang": 7333,
  "\u1006": 7334,
  "\u2581\u05de\u05e2": 7335,
  "\u25811000": 7336,
  "\u091f\u093e": 7337,
  "\u2581cos": 7338,
  "\u2581\u0421\u0443": 7339,
  "UD": 7340,
  "teg": 7341,
  "\u2581eile": 7342,
  "ures": 7343,
  "\u2581\u0447\u0443": 7344,
  "\u0e48\u0e32": 7345,
  "\u2581\u04e8": 7346,
  "\u2581\u0641\u0631": 7347,
  "\u2581Var": 7348,
  "\u2581metros": 7349,
  "\u1010\u1039": 7350,
  "37": 7351,
  "\u307f": 7352,
  "\u0430\u0441": 7353,
  "kem": 7354,
  "fol": 7355,
  "\u2581p\u00e4\u00e4": 7356,
  "\u2581lev": 7357,
  "abb": 7358,
  "\u2581iku": 7359,
  "\u2581\u12a5\u1295\u12f0": 7360,
  "zar": 7361,
  "\u2581produc": 7362,
  "\u0161o": 7363,
  "\uba85": 7364,
  "ikas": 7365,
  "\u00f6m": 7366,
  "ites": 7367,
  "\u5e76": 7368,
  "\u2581nella": 7369,
  "\u2581acc": 7370,
  "cias": 7371,
  "\u05db\u05d9": 7372,
  "ws": 7373,
  "\u0645\u0629": 7374,
  "\u2581\uc77c": 7375,
  "aph": 7376,
  "\u5973": 7377,
  "\u09be\u0987": 7378,
  "\u2581gew": 7379,
  "\u2581\u045b\u0435": 7380,
  "\u2581\u0930\u093e": 7381,
  "\u0bb1": 7382,
  "\u2581b\u00e9": 7383,
  "\u0e2d\u0e07": 7384,
  "\u2581\u00e1r": 7385,
  "\u10dd\u10d1": 7386,
  "\u0442\u0440\u0438": 7387,
  "\u2581\u043e\u0447\u0435\u043d\u044c": 7388,
  "\u0c97\u0cb3\u0ca8\u0ccd\u0ca8\u0cc1": 7389,
  "\u2581masih": 7390,
  "\u2581Aut": 7391,
  "\u2581quando": 7392,
  "\u8def": 7393,
  "\u2581nen": 7394,
  "\u2581yan": 7395,
  "\u2581\u043a\u0435": 7396,
  "\u2581ch\u00fang": 7397,
  "\u2581\u1275": 7398,
  "\u0aae\u0abe": 7399,
  "\u00ab": 7400,
  "\u2581\u0421\u0442\u0430": 7401,
  "\u2581enn": 7402,
  "\u056b\u0580": 7403,
  "\u2581yar": 7404,
  "\u2581kt\u00f3re": 7405,
  "\u2581harus": 7406,
  "\u0459\u0435": 7407,
  "\u2581essere": 7408,
  "\u2581rep": 7409,
  "\u2581wordt": 7410,
  "\u4fdd": 7411,
  "utta": 7412,
  "\u2581dd": 7413,
  "\u2581\u05d1\u05e8": 7414,
  "\u5404": 7415,
  "\u2581(4)": 7416,
  "\u0459": 7417,
  "\u2581pikeun": 7418,
  "\u0631\u0641": 7419,
  "\u043d\u044b\u043c\u0438": 7420,
  "\u1019\u103d\u102c": 7421,
  "\u0ba4\u0bcd\u0ba4\u0bbf\u0bb2\u0bcd": 7422,
  "\u17b6\u179a": 7423,
  "\u653e": 7424,
  "\u0923\u093e": 7425,
  "\u043f\u043b\u0430": 7426,
  "\u258116.": 7427,
  "\u2581\u0441\u043c\u0435": 7428,
  "\u2581\u12e8\u1218": 7429,
  "uten": 7430,
  "\u2581ganz": 7431,
  "\u2581\u05d1\u05d4": 7432,
  "\u2581t\u00ed": 7433,
  "OB": 7434,
  "jek": 7435,
  "ares": 7436,
  "\u2581Kir": 7437,
  "\u2581noi": 7438,
  "\u4f7f\u7528": 7439,
  "\u2581tip": 7440,
  "\u2581aga": 7441,
  "ld": 7442,
  "\u5357": 7443,
  "\u2581ym": 7444,
  "\u25811-": 7445,
  "\u54c1": 7446,
  "\u2581naman": 7447,
  "\u2581Ros": 7448,
  "\ud588\ub2e4": 7449,
  "\u2581kodwa": 7450,
  "\u0d31\u0d3f": 7451,
  "\u2581\u0431\u044b\u0442\u044c": 7452,
  "\u043b\u0435\u043d\u0438\u0435": 7453,
  "\u2581momento": 7454,
  "\u2581Camp": 7455,
  "\u2581\u0ab0": 7456,
  "\u05d0\u05d9": 7457,
  "\u2581s\u1eed": 7458,
  "\u0a1c\u0a3c": 7459,
  "\u0dab": 7460,
  "\u2581\u053f": 7461,
  "\u2581\u0b26": 7462,
  "olt": 7463,
  "\u05e9\u05ea": 7464,
  "\u2581sah": 7465,
  "\u2581\u064a\u0627": 7466,
  "\u2581most": 7467,
  "\u0e16": 7468,
  "\u0bb0\u0bc1": 7469,
  "\u2581tav": 7470,
  "bor": 7471,
  "\u03c4\u03ad": 7472,
  "\u2581puede": 7473,
  "amaan": 7474,
  "\u00e1st": 7475,
  "\u2581\ub4f1": 7476,
  "\u2581tay": 7477,
  "\u2581\u03ba\u03b1\u03c4\u03b1": 7478,
  "\u2581estado": 7479,
  "tions": 7480,
  "out": 7481,
  "\u2581\u0442\u044b": 7482,
  "\u1031\u1010\u103c": 7483,
  "\u1036": 7484,
  "tre": 7485,
  "\u2581Mel": 7486,
  "atud": 7487,
  "\u17bc": 7488,
  "\u12a0": 7489,
  "TV": 7490,
  "\u0699": 7491,
  "\u2581\u00e7ox": 7492,
  "\u010dn\u00ed": 7493,
  "\u05d5\u05e0\u05d4": 7494,
  "\u2581stat": 7495,
  "fat": 7496,
  "\u2581\u0634\u0647\u0631": 7497,
  "34": 7498,
  "\u03b1\u03bd": 7499,
  "iment": 7500,
  "\u010d\u00ed": 7501,
  "\u1787\u17b6": 7502,
  "\u2581\u06aa\u0631\u06bb": 7503,
  "\u2581\u1005": 7504,
  "\u2581spre": 7505,
  "\u2581\u0430\u043b\u0435": 7506,
  "\u043d\u043e\u0441\u0442\u0456": 7507,
  "\u2581\u05d4\u05e2": 7508,
  "\u2581deur": 7509,
  "tea": 7510,
  "\u2581jul": 7511,
  "num": 7512,
  "pres": 7513,
  "\u043d\u044e": 7514,
  "ilu": 7515,
  "kam": 7516,
  "\u2581aktiv": 7517,
  "\u2581any": 7518,
  "\u2581spr": 7519,
  "\u0aab": 7520,
  "zem": 7521,
  "\u0acd\u0aaf\u0abe": 7522,
  "\u2581dro": 7523,
  "imm": 7524,
  "\u2581Naj": 7525,
  "\u2581izay": 7526,
  "\u2581hom": 7527,
  "\u03c1\u03c9": 7528,
  "udo": 7529,
  "arra": 7530,
  "\u30af": 7531,
  "\uc2dd": 7532,
  "\u2581mula": 7533,
  ":30": 7534,
  "\u3059": 7535,
  "\u2581fog": 7536,
  "\u2581\u06c1\u06cc": 7537,
  "z\u0105": 7538,
  "\u2581kai": 7539,
  "96": 7540,
  "\u2581Sc": 7541,
  "\u2581hebben": 7542,
  "\u2581\u00f6z": 7543,
  "\u092c\u093e": 7544,
  "\u2581\u0917\u0930\u094d\u0928\u0947": 7545,
  "uhan": 7546,
  "\u00e8u": 7547,
  "\u102c\u1038": 7548,
  "inos": 7549,
  "\u2581\u00e1ll": 7550,
  "\u2581\u0d1a": 7551,
  "\u2581bi\u1ebft": 7552,
  "\u2581\u0413\u0430": 7553,
  "\u2581jej": 7554,
  "\u2581\u00f6n": 7555,
  "\u2581\uace0": 7556,
  "\u2581\u0432\u0430\u043c": 7557,
  "\u0ca1\u0cbf": 7558,
  "ilar": 7559,
  "abr": 7560,
  "\u2581Air": 7561,
  "\u2581olla": 7562,
  "mi\u015f": 7563,
  "\u2581Pers": 7564,
  "\u2581Tal": 7565,
  "\u2581War": 7566,
  "pun": 7567,
  "\u03bf\u03c2": 7568,
  "\u0493": 7569,
  "\u2581lum": 7570,
  "\u2581\u00cen": 7571,
  "\u2581siya": 7572,
  "\u2581US": 7573,
  "\u2581nr": 7574,
  "\u2581Vis": 7575,
  "\u043a\u04d9": 7576,
  "\u2581\u0938\u093e\u0925": 7577,
  "lja": 7578,
  "\u0dad\u0dd2": 7579,
  "\u2581\u0d87\u0dad\u0dd2": 7580,
  "\u2581\u05dc\u05e2": 7581,
  "\u0631\u0629": 7582,
  "\u0440\u0430\u043b": 7583,
  "\u8eca": 7584,
  "\u2581finns": 7585,
  "\u0926\u0940": 7586,
  "\u2581led": 7587,
  "\u2581\u0444\u0430": 7588,
  "\u00e4s": 7589,
  "\u1037": 7590,
  "\u2581daga": 7591,
  "\u673a": 7592,
  "\u0d3f\u0d2f": 7593,
  "\u2581obra": 7594,
  "\u2581\u06cc\u06d0": 7595,
  "\u8457": 7596,
  "\u2581Cl": 7597,
  "\u0909": 7598,
  "\u2581\u178a\u17c2\u179b": 7599,
  "\u2581\u0b95\u0bbe": 7600,
  "\u0d35\u0d41\u0d02": 7601,
  "atori": 7602,
  "\u2581\u0564": 7603,
  "\u2581norm": 7604,
  "\u2581\uacf5": 7605,
  "\u0648\u0627\u0646": 7606,
  "\u0448\u0442\u0435": 7607,
  "\u0448\u043e": 7608,
  "\u2581aos": 7609,
  "riz": 7610,
  "\u2581s\u00e3o": 7611,
  "\u0ab0\u0acd": 7612,
  "\u2581bok": 7613,
  "\u2581dah": 7614,
  "tima": 7615,
  "\u2581ekonom": 7616,
  "\u2581gur": 7617,
  "\u2581atas": 7618,
  "\u00f3m": 7619,
  "\u2581hir": 7620,
  "ar\u00e1": 7621,
  "\u2581jer": 7622,
  "\u2581\u1ecc": 7623,
  "\u2581Apple": 7624,
  "hair": 7625,
  "\u2581Cymru": 7626,
  "\u0c9f\u0ccd": 7627,
  "\u0939\u093e": 7628,
  "\u03c1\u03af": 7629,
  "\u043b\u0441\u044f": 7630,
  "\u2581stud": 7631,
  "\u2581\u00e9g": 7632,
  "\u592a": 7633,
  "\u0925": 7634,
  "\u2581wi": 7635,
  "\u0443\u0440": 7636,
  "\u00f6g": 7637,
  "stva": 7638,
  "oms": 7639,
  "\u2581cit": 7640,
  "\u2581\u062f\u0627\u0631\u062f": 7641,
  "\u2581doen": 7642,
  "PS": 7643,
  "\u25812005": 7644,
  "zia": 7645,
  "ides": 7646,
  "\u044d\u0445": 7647,
  "\u0e31": 7648,
  "\ubb34": 7649,
  "\u2581tr\u00ecnh": 7650,
  "hd": 7651,
  "istan": 7652,
  "\u2581tij": 7653,
  "\u2581qua": 7654,
  "\u0ccd\u0caf": 7655,
  "\u0561\u0575": 7656,
  "\u0161anas": 7657,
  "\u2581Yn": 7658,
  "\u10d8\u10da": 7659,
  "\u66f8": 7660,
  "aty": 7661,
  "\u2581tir": 7662,
  "\u043b\u0438\u0441\u044c": 7663,
  "\u0410\u041d": 7664,
  "nal": 7665,
  "\u03b1\u03c2": 7666,
  "\u2581\u0430\u0440": 7667,
  "\u2581Europ": 7668,
  "\u2581schon": 7669,
  "in\u0117": 7670,
  "bra": 7671,
  "\ub4e4": 7672,
  "\u0ec3\u0e99": 7673,
  "\u2581(200": 7674,
  "\u2581savo": 7675,
  "\u2581Hi": 7676,
  "it\u00e4": 7677,
  "tai": 7678,
  "\u2581n\u00e9": 7679,
  "\u05e8\u05d0": 7680,
  "\u2581IT": 7681,
  "\u2581m\u00f5": 7682,
  "zenie": 7683,
  "\u2581nama": 7684,
  "\u2581\u06af\u0641\u062a": 7685,
  "\u2581n\u00e0o": 7686,
  "\u2581cab": 7687,
  "\u2581kuin": 7688,
  "\u0648\u0647": 7689,
  "\u0e2d\u0e22\u0e48\u0e32\u0e07": 7690,
  "nou": 7691,
  "\u0b3e\u0b28": 7692,
  "\u2581\u00f2c": 7693,
  "\u2581tol": 7694,
  "\u2581Tom": 7695,
  "\u0d1f\u0d4d\u0d1f\u0d3f": 7696,
  "\u043f\u0440\u0438": 7697,
  "\u2581\u043f\u0456": 7698,
  "\u09c7\u09a8": 7699,
  "ovo": 7700,
  "rei": 7701,
  "\u3063\u3066\u3044\u308b": 7702,
  "\u2581\u05e1\u05d9": 7703,
  "\u1014": 7704,
  "d\u0259n": 7705,
  "\u2581\u0446\u0456": 7706,
  "owania": 7707,
  "].": 7708,
  "kil": 7709,
  "\u2581\ub9c8": 7710,
  "\u2581\u0633\u0646": 7711,
  "elig": 7712,
  "\u0624": 7713,
  "dz": 7714,
  "arta": 7715,
  "\u2581d\u00e1": 7716,
  "\u258175": 7717,
  "\u2581pog": 7718,
  "\u2581\u0db1": 7719,
  "tay": 7720,
  "oren": 7721,
  "\u2581\u00ec": 7722,
  "\u2581ky": 7723,
  "\u2581\u203a": 7724,
  "\u03c1\u03b9\u03c3": 7725,
  "\u2581past": 7726,
  "\u8207": 7727,
  "\u0acd\u0aaf": 7728,
  "\u5c0d": 7729,
  "\u2581\u0111ang": 7730,
  "\u2581\u10d2\u10d0\u10db\u10dd": 7731,
  "\u2581USA": 7732,
  "\u06bb\u064a": 7733,
  "\u258165": 7734,
  "\u03b9\u03ac": 7735,
  "\u2581CH": 7736,
  "inst": 7737,
  "2017": 7738,
  "ady": 7739,
  "\u8d70": 7740,
  "\u2581\u043d\u0430\u043c": 7741,
  "\u2581\u05d4\u05d4": 7742,
  "-10": 7743,
  "\u0932\u094d": 7744,
  "\u2581\u0634\u064a": 7745,
  "\u0cbe\u0caf": 7746,
  "\u057e": 7747,
  "tis": 7748,
  "\u65e0": 7749,
  "\u2581\u05d1\u05d7": 7750,
  "js": 7751,
  "ring": 7752,
  "vit": 7753,
  "\u2581poate": 7754,
  "SA": 7755,
  "\u10e7": 7756,
  "\u0eaa\u0eb0": 7757,
  "\u2581c\u1ea5p": 7758,
  "\u2581\u0111\u00e2y": 7759,
  "\u0163": 7760,
  "\u2581qab": 7761,
  "\u0446\u044b\u0456": 7762,
  "\u09ab": 7763,
  "\u05e4\u05e8": 7764,
  "\u03c4\u03b5\u03c2": 7765,
  "\u2581tit": 7766,
  "\u0257e": 7767,
  "\u2581Ant": 7768,
  "\u2581especial": 7769,
  "\u2581Wikimedia": 7770,
  "emen": 7771,
  "\u2581kart": 7772,
  "\u2581diri": 7773,
  "\u05e0\u05ea": 7774,
  "had": 7775,
  "\u0639\u062f": 7776,
  "\u2581upang": 7777,
  "arte": 7778,
  "\u2581\u0d2e\u0d3e": 7779,
  "ibi": 7780,
  "iswa": 7781,
  "\u2581III": 7782,
  "\u0d24\u0d4d\u0d24\u0d4d": 7783,
  "\u2581Ker": 7784,
  "\u2581paano": 7785,
  "rs": 7786,
  "\u5ba2": 7787,
  "\u2581c\u00f9ng": 7788,
  "\u0a24\u0a40": 7789,
  "\u2581nebo": 7790,
  "\u0e9b": 7791,
  "\u3057\u307e\u3059": 7792,
  "\u10d4\u10db": 7793,
  "\u04d9\u0439": 7794,
  "\u2581timbang": 7795,
  "\ud559": 7796,
  "\u0565\u0582": 7797,
  "ect": 7798,
  "\u2581problema": 7799,
  "\u2581\u179b\u17c4\u1780": 7800,
  "\u2581sec": 7801,
  "\u00e8rs": 7802,
  "\u2581kj": 7803,
  "\uc548": 7804,
  "\ub9c8": 7805,
  "aram": 7806,
  "zk": 7807,
  "nje": 7808,
  "\u049b\u044b": 7809,
  "\u0928\u093f": 7810,
  "\u2581Hor": 7811,
  "\u2581\u300c": 7812,
  "\u2581\u0e15": 7813,
  "\u2581tego": 7814,
  "zh": 7815,
  "\u2581ST": 7816,
  "riv": 7817,
  "kap": 7818,
  "\u062d\u0629": 7819,
  "\u0daf\u0dd4": 7820,
  "\u03bc\u03b7": 7821,
  "cul": 7822,
  "\u2581Van": 7823,
  "\u2581\u10d7": 7824,
  "irm": 7825,
  "\u5834": 7826,
  "\u05d2\u05d9": 7827,
  "\u2581anal": 7828,
  "\u2581\u06aa\u064a\u0648": 7829,
  "\u2581Que": 7830,
  "\u2581\u0414\u043b\u044f": 7831,
  "\u2581\u0627\u062a": 7832,
  "ters": 7833,
  "\u2581Radio": 7834,
  "\u2581\ub0b4": 7835,
  "\u2581nay": 7836,
  "\u0938\u094d\u091f": 7837,
  "\u2581kunne": 7838,
  "\u0ddc": 7839,
  "\u5c40": 7840,
  "abar": 7841,
  "\u53d1\u5c55": 7842,
  "\u5149": 7843,
  "in\u00eb": 7844,
  "\u8fd1": 7845,
  "\u10ea\u10d8": 7846,
  "\u0111": 7847,
  "\u2581despre": 7848,
  "\u258100": 7849,
  "wel": 7850,
  "\u0648\u0627\u0631": 7851,
  "\u2581nej": 7852,
  "\u8fd9\u4e2a": 7853,
  "\u696d": 7854,
  "\u2581ktor\u00e9": 7855,
  "\u2581Don": 7856,
  "indi": 7857,
  "?\"": 7858,
  "\u05e7\u05d8": 7859,
  "\u2581kh\u00e1c": 7860,
  "\u2581\u05dc\u05d7": 7861,
  "\u2581laeng": 7862,
  "\u2581\u0b0f\u0b39\u0b3f": 7863,
  "\u2581mare": 7864,
  "\u2581\u0442\u043e\u0439": 7865,
  "\u0434\u043e\u0432": 7866,
  "\u2581\u043a\u044a\u043c": 7867,
  "\u2581gir": 7868,
  "uksen": 7869,
  "\u043d\u0435\u04a3": 7870,
  "\u10d5\u10d8\u10e1": 7871,
  "\u2581\u03bc": 7872,
  "\u0648\u0631\u06cc": 7873,
  "\u2581ise": 7874,
  "\u2581h\u00e0nh": 7875,
  "c\u00ed": 7876,
  "\u2581\u1785": 7877,
  "\u2581\u03c0\u03b1\u03c1\u03b1": 7878,
  "\u2581Uma": 7879,
  "ria": 7880,
  "avo": 7881,
  "elm": 7882,
  "\u2581dost": 7883,
  "\u2581\u121d": 7884,
  "\u09ad": 7885,
  "\u12dd": 7886,
  "\u03bc\u03cc": 7887,
  "\u2581modern": 7888,
  "\u0d24\u0d4d\u0d24\u0d46": 7889,
  "az\u0103": 7890,
  "\u09bf\u09b0": 7891,
  "\u2581ey": 7892,
  "\u2581Sy": 7893,
  "OG": 7894,
  "\u2581iar": 7895,
  "\u2581Bon": 7896,
  "\u043b\u0430\u0443": 7897,
  "\u2581\u043b": 7898,
  "tige": 7899,
  "\u2581ngem": 7900,
  "\u2581lehet": 7901,
  "\u2581\u0433\u043b\u0430": 7902,
  "\u5e97": 7903,
  "\u0b9f\u0bcd\u0b9f\u0bc1": 7904,
  "\u0431\u043e\u0440": 7905,
  "eln": 7906,
  "\u2581\u0d15\u0d3e": 7907,
  "\u0eb1\u0e81": 7908,
  "\u2581hann": 7909,
  "\u2581Kun": 7910,
  "k\u00f6": 7911,
  "tiva": 7912,
  "\u2581AN": 7913,
  "\u2581nyt": 7914,
  "\u2581funk": 7915,
  "wag": 7916,
  "\u2581Kap": 7917,
  "\u0259l": 7918,
  "\u2581pare": 7919,
  "\u2581haar": 7920,
  "ager": 7921,
  "\u2581\u0642\u062f": 7922,
  "\u2581iPhone": 7923,
  "ikal": 7924,
  "\u2581Pra": 7925,
  "\u1011": 7926,
  "\u2581lite": 7927,
  "\u2581Ev": 7928,
  "\u2581flere": 7929,
  "\u0d1a\u0d4d\u0d1a": 7930,
  "\u0bc0": 7931,
  "tel": 7932,
  "\u2581\u0648\u0628": 7933,
  "\u0a96": 7934,
  "\u2581\u0917\u0930\u094d\u0928": 7935,
  "\u2581sas": 7936,
  "\u0151k": 7937,
  "\u25812-": 7938,
  "La": 7939,
  "\u2581\u044e": 7940,
  "\u2581\u0e42": 7941,
  "\u2581sme": 7942,
  "\u2581kaip": 7943,
  "\u2581\u0d87": 7944,
  "\u0e2d\u0e19": 7945,
  "\u0a21": 7946,
  "itte": 7947,
  "\u1276\u127d": 7948,
  "\u2581Tag": 7949,
  "\u2581\u062f\u0633\u062a": 7950,
  "\u039f": 7951,
  "\u0d30\u0d3e": 7952,
  "\u2581\uc2e0": 7953,
  "EG": 7954,
  "\u2581neu": 7955,
  "\u2581\u0d15\u0d41": 7956,
  "\u0e16\u0e36\u0e07": 7957,
  "tori": 7958,
  "\u2581yg": 7959,
  "\u0b99\u0bcd\u0b95\u0bb3\u0bcd": 7960,
  "\u0b17": 7961,
  "eles": 7962,
  "\u094c": 7963,
  "\u7684\u4eba": 7964,
  "\u2581Tan": 7965,
  "\u2581Tor": 7966,
  "\u0ccd": 7967,
  "\u0cbf\u0c95": 7968,
  "\u539f": 7969,
  "in\u0259": 7970,
  "\ubb3c": 7971,
  "\u2581Til": 7972,
  "\u2581iad": 7973,
  "inal": 7974,
  "\u017cy": 7975,
  "\u2581\u0433\u043e\u0434\u0438\u043d\u0438": 7976,
  "\u2581sehr": 7977,
  "\u00e1ny": 7978,
  "ici": 7979,
  "\u2581\u062a\u0645\u0627\u0645": 7980,
  "\u2581\u0a17": 7981,
  "\u2581proces": 7982,
  "\u2581favor": 7983,
  "stra": 7984,
  "\u00ebm": 7985,
  "\u2581bos": 7986,
  "\u010c": 7987,
  "\u2581\u0915\u0930\u0928\u0947": 7988,
  "\u0447\u0456": 7989,
  "\u0936\u0940": 7990,
  "wana": 7991,
  "?!": 7992,
  "\u2581\u00c4": 7993,
  "lab": 7994,
  "ativo": 7995,
  "\u2581koja": 7996,
  "arios": 7997,
  "\u2581120": 7998,
  "\u0d3e\u0d23\u0d4d": 7999,
  "\u2581yeni": 8000,
  "\u2581conf": 8001,
  "\u2581\u03b1\u03bb\u03bb\u03ac": 8002,
  "\u2581\u03ad\u03c7\u03b5\u03b9": 8003,
  "\u2581\u043c\u043e\u0436\u0435\u0442\u0435": 8004,
  "\u2581\u0a15\u0a30": 8005,
  "\u2581\u0431\u0456": 8006,
  "\u0639\u064a": 8007,
  "\u2581\u092c\u093f": 8008,
  "\u0aa4\u0ac0": 8009,
  "\u2581Super": 8010,
  "qi": 8011,
  "\u2581aug": 8012,
  "\u2581mok": 8013,
  "\u0441\u044c\u043a\u043e\u0433\u043e": 8014,
  "pol": 8015,
  "\u2581rin": 8016,
  "ition": 8017,
  "\u0b21": 8018,
  "\u00f6v": 8019,
  "\u2581nh\u01b0ng": 8020,
  "\u2581\u0648\u0645": 8021,
  "hur": 8022,
  "\u03c0\u03b1": 8023,
  "\u0cbe\u0cb0": 8024,
  "\u0645\u0647": 8025,
  "skom": 8026,
  "\u0577": 8027,
  "33": 8028,
  "68": 8029,
  "\u09bf\u09a8": 8030,
  "\u2581\u0938\u093f": 8031,
  "\u03bc\u03ac": 8032,
  "\u2581Us": 8033,
  "\u2581toim": 8034,
  "IE": 8035,
  "\u2581\u0627\u0633\u062a\u0641\u0627\u062f\u0647": 8036,
  "\u2581\u0633\u0646\u068c": 8037,
  "unga": 8038,
  "elik": 8039,
  "\u2581p\u0159ed": 8040,
  "\u2581\u018f": 8041,
  "\u3093": 8042,
  "\u2581Cu": 8043,
  "onta": 8044,
  "\u0e32\u0e22": 8045,
  "\u2581\u0411\u0443": 8046,
  "\u2581fund": 8047,
  "\u0e31\u0e19": 8048,
  "\u2581n\u00f3i": 8049,
  "\u2581250": 8050,
  "\u2581lie": 8051,
  "\u2581\u0637\u0631\u062d": 8052,
  "\u2581\u0915\u093f\u092f\u093e": 8053,
  "\u2581\u0b30": 8054,
  "\u4f01\u4e1a": 8055,
  "\u2581gaz": 8056,
  "\u3053\u3068": 8057,
  "\u2581ph\u00e1t": 8058,
  "\u2581Bol": 8059,
  "\u2581dun": 8060,
  "\u4e8c": 8061,
  "\u00edch": 8062,
  "\u10d4\u10e0\u10d8": 8063,
  "\u2581\u0442\u0440\u0435": 8064,
  "\u0e4c": 8065,
  "\u129d": 8066,
  "\u2581rol": 8067,
  "\uccb4": 8068,
  "\u0cc8": 8069,
  "\u2581fun": 8070,
  "\u0434\u0430\u0442": 8071,
  "\u0561\u0563": 8072,
  "\u63a5": 8073,
  "\u5e73": 8074,
  "\u2581\u0645\u0631": 8075,
  "\u17c1": 8076,
  "\u2581wana": 8077,
  "\u062e\u062a": 8078,
  "ml": 8079,
  "omis": 8080,
  "\u2581\u0643\u0627\u0646": 8081,
  "\u2581\u0439\u044b\u043b": 8082,
  "\u2581menos": 8083,
  "\u5341": 8084,
  "\u0430\u043b\u044c": 8085,
  "\u043d\u0435\u043c": 8086,
  "MA": 8087,
  "\u0499\u0430\u0440": 8088,
  "\u2581\u0642\u0628\u0644": 8089,
  "\u2581\u05dc\u05e9": 8090,
  "\u2581City": 8091,
  "\u0561\u0570": 8092,
  "\u2581zona": 8093,
  "\u00fct": 8094,
  "\u00f0ar": 8095,
  "\u03b1\u03b9": 8096,
  "\u2581Mes": 8097,
  "\u0d23\u0d02": 8098,
  "\u0dc0\u0dd2": 8099,
  "\u2581bun": 8100,
  "\u0d4d": 8101,
  "\u53d7": 8102,
  "\u2581membuat": 8103,
  "\u0d4d\u0d2f": 8104,
  "unge": 8105,
  "\u00edu": 8106,
  "\u05d1\u05dc": 8107,
  "atr": 8108,
  "\u2581Vir": 8109,
  "\u2581ala": 8110,
  "\u2581t\u01b0": 8111,
  "\u0a26\u0a40": 8112,
  "\u0442\u043d\u0430": 8113,
  "TI": 8114,
  "\u2581aff": 8115,
  "\u2581prev": 8116,
  "\u0d17": 8117,
  "\u2581\u05d4\u05d1": 8118,
  "\u0444\u0456": 8119,
  "anak": 8120,
  "ov\u00fd": 8121,
  "\u04ab": 8122,
  "isse": 8123,
  "\u2581Sem": 8124,
  "\u4e24": 8125,
  "\u10e0\u10d0": 8126,
  "\u2581\u0e0a": 8127,
  "king": 8128,
  "\u10d0\u10da\u10d8": 8129,
  "\u2581bog": 8130,
  "\u2581\u0e1b": 8131,
  "\u2581\u0431\u0430\u0439": 8132,
  "\u258121.": 8133,
  "\u2581\u0625\u0646": 8134,
  "\u2581\u0411\u0430\u0448\u04a1\u043e\u0440\u0442\u043e\u0441\u0442\u0430\u043d": 8135,
  "\u0435\u0439": 8136,
  "\u10eb": 8137,
  "wazi": 8138,
  "\u9019": 8139,
  "\u2581priv": 8140,
  "\u2581\u041d\u0410": 8141,
  "fh": 8142,
  "\u017a": 8143,
  "iss\u00e4": 8144,
  "\u043b\u0493\u0430\u043d": 8145,
  "\u05d5\u05d8": 8146,
  "\u2581website": 8147,
  "\u2581\u043f\u0430\u0440": 8148,
  "\u2581\u043d\u0443": 8149,
  "\u2581\u0431\u043e\u043b\u0435\u0435": 8150,
  "\u2581\u0433\u0443": 8151,
  "idu": 8152,
  "post": 8153,
  "\u2581\u0926\u093f": 8154,
  "\u05de\u05d9\u05dd": 8155,
  "esten": 8156,
  "\u043b\u0435\u043d\u0438\u044f": 8157,
  "\u2581Bak": 8158,
  "\u2581\u05d3\u05e2\u05dd": 8159,
  "\u2581c\u1ea7n": 8160,
  "\u0c82\u0ca4": 8161,
  "\u4ee3": 8162,
  "\u2581Nord": 8163,
  "\u2581\u0e21\u0e35": 8164,
  "\u2581\u03b5\u03bd": 8165,
  "\u2581\u043d\u0456": 8166,
  "Share": 8167,
  "\u2581\u03c3\u03c5\u03bd": 8168,
  "enten": 8169,
  "\u2581Rec": 8170,
  "\u2581\u0d09": 8171,
  "\u2581mpe": 8172,
  "\u0949": 8173,
  "\u00f3g": 8174,
  "\u0142am": 8175,
  "\u2581info": 8176,
  "\u2581Bor": 8177,
  "\u0921\u093e": 8178,
  "\u2581\u0415\u0441\u043b\u0438": 8179,
  "\u2581sug": 8180,
  "\u2581peut": 8181,
  "\u2581Foto": 8182,
  "\u2581aig": 8183,
  "uld": 8184,
  "\u2581Ju": 8185,
  "\u0e21\u0e32\u0e01": 8186,
  "\ud788": 8187,
  "osan": 8188,
  "\u2581\u0441\u043b\u0435\u0434": 8189,
  "\u2581TR": 8190,
  "j\u00e4": 8191,
  "autor": 8192,
  "\u2581anh": 8193,
  "\u2581svoje": 8194,
  "\u043b\u0435\u0442": 8195,
  "\u2581\u0ca6": 8196,
  "\u012bba": 8197,
  "isesti": 8198,
  "ENT": 8199,
  "\u258144": 8200,
  "\u05d3\u05d9\u05dd": 8201,
  "wie": 8202,
  "fn": 8203,
  "\u2581ly": 8204,
  "\u2581barn": 8205,
  "\u123d": 8206,
  "\u2581t\u00fa": 8207,
  "\u7ed9": 8208,
  "\u4e07": 8209,
  "\u2581\u04a1\u0430": 8210,
  "\u63d0\u4f9b": 8211,
  "\u2581\u0cb5\u0cbf": 8212,
  "\u2581n\u0103ng": 8213,
  "\u2581\u04ae": 8214,
  "\u2581\u0446\u0438": 8215,
  "lib": 8216,
  "\u2581a\u017e": 8217,
  "\u2581cuando": 8218,
  "\u2581rev": 8219,
  "-8": 8220,
  "\u00e1rio": 8221,
  "\u2581kn": 8222,
  "\u099a": 8223,
  "\u2581unter": 8224,
  "\u0bc2": 8225,
  "\u2581meget": 8226,
  "\u0693": 8227,
  "\u00e9ny": 8228,
  "\u0eb2\u0e94": 8229,
  "\uacbd": 8230,
  "\u2581John": 8231,
  "\u2581\u17d4": 8232,
  "\u0902\u0924": 8233,
  "\u2581Soomaaliya": 8234,
  "\u3042": 8235,
  "\u0e40\u0e25": 8236,
  "\u0440\u0430\u043d\u0435": 8237,
  "\u6d41": 8238,
  "ual": 8239,
  "\u2581dana": 8240,
  "\u2581\u0928\u093e\u0939\u0940": 8241,
  "\u2581\u03b1\u03c0": 8242,
  "\u2581\u03c4": 8243,
  "r\u00f3": 8244,
  "hand": 8245,
  "\u2581\u0441\u0430\u043c": 8246,
  "\u0b24\u0b3e": 8247,
  "\u2581kost": 8248,
  "\u0a30\u0a3e": 8249,
  "\u2581197": 8250,
  "\u2581you": 8251,
  "\u0441\u043a\u0456": 8252,
  "rab": 8253,
  "ic\u0103": 8254,
  "\u2581\u0627\u0644\u0637": 8255,
  "\u2581\u12c8\u12f0": 8256,
  "\u76ee": 8257,
  "\u0d34": 8258,
  "\u2581zak": 8259,
  "\u2581\u179b": 8260,
  "\u307e\u3057\u305f": 8261,
  "\u0905": 8262,
  "\u0cb2\u0cc1": 8263,
  "\u2581cui": 8264,
  "\u0d41\u0d28\u0d4d\u0d28": 8265,
  "\u129b": 8266,
  "\u0993": 8267,
  "\u2581def": 8268,
  "\u0abe\u0ab0": 8269,
  "\u2581kep": 8270,
  "\u6c17": 8271,
  "\u0641\u0627": 8272,
  "iniz": 8273,
  "nder": 8274,
  "\u0b19\u0b4d\u0b15\u0b41": 8275,
  "kes": 8276,
  "\u258109": 8277,
  "\ubd84": 8278,
  "39": 8279,
  "\u2581t\u0101": 8280,
  "\u09be\u09ac": 8281,
  "ody": 8282,
  "\u2581acest": 8283,
  "\u2581comme": 8284,
  "\u00e1si": 8285,
  "hed": 8286,
  "\u2581nh\u1eadn": 8287,
  "\u2581\u0e81": 8288,
  "LE": 8289,
  "log": 8290,
  "ffe": 8291,
  "\u0642\u06cc": 8292,
  "gg": 8293,
  "\u05d5\u05e9": 8294,
  "II": 8295,
  "\u2581ml": 8296,
  "\u0432\u0430\u043b\u0430": 8297,
  "\u2581\u0938\u094b": 8298,
  "\u0a5c": 8299,
  "idades": 8300,
  "\u2581\u0441\u0442\u0440\u0430": 8301,
  "lang": 8302,
  "\u2581buhok": 8303,
  "\u2581gara": 8304,
  "\u043a\u0442": 8305,
  "\u2581\u0430\u043a\u043e": 8306,
  "\u2581Gl": 8307,
  "\u0440\u0493\u0430": 8308,
  "\u4f7f": 8309,
  "itti": 8310,
  "onda": 8311,
  "\u2581\u0924\u0925\u093e": 8312,
  "\u2581tuig": 8313,
  "\u2581\u0b0f": 8314,
  "\u258105": 8315,
  "\u0a26\u0a47": 8316,
  "\u2581\u0eaa\u0eb0": 8317,
  "\u2581bilo": 8318,
  "\u0d32\u0d4d\u0d32": 8319,
  "\u2581\u0635\u0648\u0631\u062a": 8320,
  "\u2581zal": 8321,
  "\u2581Plan": 8322,
  "\u2581bakal": 8323,
  "\u0abf\u0a95": 8324,
  "\u2581jsou": 8325,
  "\u03b9\u03bf": 8326,
  "\u7701": 8327,
  "\u2581tr\u00e8s": 8328,
  "\u2581\u03c3\u03c4\u03bf\u03bd": 8329,
  "\u2581habagatan": 8330,
  "ugi": 8331,
  "\u0420\u0410": 8332,
  "\u102e": 8333,
  "\u0d4a": 8334,
  "\u0ab0\u0ac7": 8335,
  "\u5468": 8336,
  "\u044d\u0440": 8337,
  "\u2581isu": 8338,
  "\u2581nghi\u1ec7p": 8339,
  "yer": 8340,
  "\u2581\u043b\u0435\u0442": 8341,
  "\u2581aplicar": 8342,
  "\u2581ES": 8343,
  "\u2581\u0410\u0440": 8344,
  "ls": 8345,
  "\u2581Martin": 8346,
  "\u2581tawo": 8347,
  "\u2581\u0b17": 8348,
  "\u053b": 8349,
  "tav": 8350,
  "odd": 8351,
  "wikipedia": 8352,
  "\u30de": 8353,
  "l\u0259": 8354,
  "\u2581\u12f0": 8355,
  "\u043b\u0438\u043d": 8356,
  "%,": 8357,
  "\u0d3e\u0d2f": 8358,
  "\u2581\u05d4\u05e8": 8359,
  "\u2581\u0425\u0430": 8360,
  "\u2581mich": 8361,
  "\u0db6": 8362,
  "\u2581personal": 8363,
  "\ub7ec": 8364,
  "\u2581ple": 8365,
  "\u0d33\u0d4d": 8366,
  "\u306a\u3069": 8367,
  "\u04e9\u04e9": 8368,
  "\u0e49": 8369,
  "\u2581Alle": 8370,
  "yti": 8371,
  "\u0648\u0631\u064a": 8372,
  "\u011f\u0131": 8373,
  "\u2581dub": 8374,
  "\u2581Sau": 8375,
  "in\u0117s": 8376,
  "\u53d6": 8377,
  "\u2581kv": 8378,
  "\u2581gest": 8379,
  "\uc7ac": 8380,
  "\u258107": 8381,
  "\u2581\u06a9\u0646": 8382,
  "\u0434\u0430\u043c": 8383,
  "\u2581\u0445\u0438": 8384,
  "\u2581kis": 8385,
  "\u2581\u0442\u0430\u043a\u0430": 8386,
  "\u2581\u04bb": 8387,
  "\u0a70": 8388,
  "\u2581Lib": 8389,
  "\u0c82": 8390,
  "\u092a\u0940": 8391,
  "apat": 8392,
  "\u2581m\u00e1y": 8393,
  "\u2581g\u00f6r\u0259": 8394,
  "\u041d\u0418": 8395,
  "\u2581\u04b1": 8396,
  "\u2581\u062b": 8397,
  "\u306b\u3082": 8398,
  "\u2581\u05d4\u05e0": 8399,
  "67": 8400,
  "\u00e4ng": 8401,
  "\u0d2e\u0d3e\u0d2f\u0d3f": 8402,
  "\u2581\u00e4": 8403,
  "indo": 8404,
  "hez": 8405,
  "\u03b4\u03bf": 8406,
  "\u05d7\u05d4": 8407,
  "\u2581geen": 8408,
  "\u2581\u067e\u064a": 8409,
  "\u0cb2\u0ccd\u0cb2": 8410,
  "\u0932\u094d\u092f\u093e": 8411,
  "\u2581\u0dc4\u0dcf": 8412,
  "\u0c9a": 8413,
  "ray": 8414,
  "\u2581\u0644\u0648": 8415,
  "\u2581siz": 8416,
  "owanie": 8417,
  "\u2581zad": 8418,
  "\uac70": 8419,
  "\u03b9\u03ba\u03ae\u03c2": 8420,
  "An": 8421,
  "\u2581Din": 8422,
  "ilis": 8423,
  "\u2581\u0639\u0627\u0645": 8424,
  "km": 8425,
  "\u0442\u0443\u0440\u0430": 8426,
  "\u2581\u062c\u0633": 8427,
  "stu": 8428,
  "\uc911": 8429,
  "\u2581\u0442\u0430\u043c": 8430,
  "ingan": 8431,
  "\u2581\u03c3\u03b1\u03c2": 8432,
  "\u2581wak": 8433,
  "\u2581\u05dc\u05d1": 8434,
  "\u2581Tre": 8435,
  "\u2581sai": 8436,
  "\u00e6k": 8437,
  "adr": 8438,
  "\u2581\u0a2b": 8439,
  "\u0e2b\u0e19\u0e49\u0e32": 8440,
  "\u0642\u062a": 8441,
  "\u0e15\u0e48\u0e2d": 8442,
  "\u2581werk": 8443,
  "estr": 8444,
  "\u0442\u04d9\u0440": 8445,
  "\u2581andere": 8446,
  "\u2581\u0442\u04af": 8447,
  "gj": 8448,
  "\u013cu": 8449,
  "\u9700\u8981": 8450,
  "\u2581amihanan": 8451,
  "\ubb38": 8452,
  "\u2581l\u00ean": 8453,
  "\ud504": 8454,
  "\u0d15\u0d4d": 8455,
  "\u2581fort": 8456,
  "ibu": 8457,
  "44": 8458,
  "\u2581beberapa": 8459,
  "wyd": 8460,
  "\u2581\u1798\u17b6\u1793": 8461,
  "\u2581\u03c3\u03c4\u03b9\u03c2": 8462,
  "\u2581zna": 8463,
  "\u2581lokho": 8464,
  "\u2581Leg": 8465,
  "\u0499\u044b\u04a3": 8466,
  "77": 8467,
  "\u2581Untuk": 8468,
  "\u2581cele": 8469,
  "\u2581loo": 8470,
  "''": 8471,
  "\u2581WA": 8472,
  "\u65e5\u672c": 8473,
  "ral": 8474,
  "\u2581\u0644\u06cc\u06d2": 8475,
  "\u03bb\u03ac": 8476,
  "mas\u0131": 8477,
  "atis": 8478,
  "\ub41c": 8479,
  "\u0d41\u0d33\u0d4d\u0d33": 8480,
  "\u2581emp": 8481,
  "plan": 8482,
  "\u2581\u1780\u17d2\u1793\u17bb\u1784": 8483,
  "\u2581\u010do": 8484,
  "\u0441\u043e\u0432": 8485,
  "\u2581\u062a\u06a9": 8486,
  "\u573a": 8487,
  "\u2581giiniton": 8488,
  "imet": 8489,
  "\u2581but": 8490,
  "\u2581egin": 8491,
  "\u2581szer": 8492,
  "\u0436\u044b": 8493,
  "\u2581\u0432\u0435\u0440": 8494,
  "\u101a\u1039": 8495,
  "\u2581oan": 8496,
  "\u00e8ncia": 8497,
  "\u062f\u0627\u0631": 8498,
  "\u2581\uc815": 8499,
  "\u2581buvo": 8500,
  "\u05db\u05d4": 8501,
  "\u05de\u05ea": 8502,
  "erk": 8503,
  "\u0da7\u0dca": 8504,
  "\u2581viv": 8505,
  "\u2581kinainitan": 8506,
  "\u2581kinabugnawan": 8507,
  "\u044b\u043b": 8508,
  "sin": 8509,
  "\u2581tylko": 8510,
  "iyor": 8511,
  "\u2581By": 8512,
  "\u2581normal": 8513,
  "\u2581\u0915\u0930\u093e": 8514,
  "\u0448\u043a\u0438": 8515,
  "\u0440\u043e\u0432\u0430": 8516,
  "\u1219": 8517,
  "\u043a\u0441": 8518,
  "\u1010\u1032\u1037": 8519,
  "\u2581Sim": 8520,
  "\u2581pr\u00ed": 8521,
  "\u2581resp": 8522,
  "\u751f\u6d3b": 8523,
  "\u2581ulohan": 8524,
  "\u2581\u0aae\u0abe": 8525,
  "\u2581\u044d\u0448": 8526,
  "\u2581ngenxa": 8527,
  "\u2581mau": 8528,
  "\u2581\u0927": 8529,
  "\u120d\u1362": 8530,
  "\u2581\u0627\u0644\u062e": 8531,
  "\u2581pir": 8532,
  "\u2581cop": 8533,
  "\u2581rehiyon": 8534,
  "l\u00ed": 8535,
  "\u793e": 8536,
  "\uc2e4": 8537,
  "vez": 8538,
  "\u1032": 8539,
  "\u2581\u0639\u0645\u0644": 8540,
  "\u2581noen": 8541,
  "\u2581\u1325": 8542,
  "\u0932\u093f": 8543,
  "lus": 8544,
  "\u2581\u0440\u044d": 8545,
  "inge": 8546,
  "\u3055": 8547,
  "\u2581ibabaw": 8548,
  "Alike": 8549,
  "\u0434\u043d\u0435": 8550,
  "\u2581\u05d4\u05e1": 8551,
  "\u03bb\u03ae": 8552,
  "\u0561\u0576\u056b": 8553,
  "\u0e2d\u0e01": 8554,
  "\u2581Cel": 8555,
  "\u2581besar": 8556,
  "etik": 8557,
  "\u2581f\u00f8r": 8558,
  "\u2581heb": 8559,
  "\u2581\u0412\u0441\u0435": 8560,
  "\u043d\u0435\u0439": 8561,
  "siy": 8562,
  "\u2581Sport": 8563,
  "\u2581Nahimutang": 8564,
  "\u0935\u093e\u0930": 8565,
  "\uae08": 8566,
  "utar": 8567,
  "\u05e0\u05e1": 8568,
  "\u0ba8\u0bcd\u0ba4\u0bc1": 8569,
  "\u2581Gen": 8570,
  "\u1004\u103a": 8571,
  "88": 8572,
  "\u2581kwenye": 8573,
  "\u2581\u056b\u0580": 8574,
  "bes": 8575,
  "\u03c4\u03cc": 8576,
  "\u2581\u0445\u0443": 8577,
  "ety": 8578,
  "\u8ba9": 8579,
  "\u2581as\u00ed": 8580,
  "\u2581kanggo": 8581,
  "\u2581ingkang": 8582,
  "\u2581kata": 8583,
  "\u2581apie": 8584,
  "\uc5ec": 8585,
  "IF": 8586,
  "\u2581\u0688": 8587,
  "\u0d24\u0d4d\u0d24\u0d3f\u0d32\u0d4d": 8588,
  "\u2581\u0648\u0644": 8589,
  "\u0633\u0645": 8590,
  "\u0648\u0642": 8591,
  "\u05d5\u05d5": 8592,
  "\u25816,": 8593,
  "\u2581\u092f\u0939": 8594,
  "\u0441\u044c\u043a\u043e\u0457": 8595,
  "\u00e1in": 8596,
  "\u2581\u0438\u0433\u0440\u0430": 8597,
  "\u2581nada": 8598,
  "\u2581bahwa": 8599,
  "\u2581\u0aa4": 8600,
  "ebo": 8601,
  "\u2581\u0917\u0930\u0947\u0915\u094b": 8602,
  "\u17bb": 8603,
  "\u52d5": 8604,
  "\u2581\u00e9l": 8605,
  "\u2581ju\u017c": 8606,
  "\u2581hot": 8607,
  "d\u0131": 8608,
  "\u2581Nas": 8609,
  "\u2581zm": 8610,
  "\u0161ie": 8611,
  "hab": 8612,
  "\u0d1c": 8613,
  "\u2581\u0628\u0627\u0632": 8614,
  "\u2581Ze": 8615,
  "\u2581\uc870": 8616,
  "\u103d": 8617,
  "\u2581dokument": 8618,
  "\u2581integr": 8619,
  "\u2581\u05d0\u05d5\u05d9\u05e3": 8620,
  "atos": 8621,
  "\u2581disponibles": 8622,
  "\u2581tamb\u00e9m": 8623,
  "\u0d3f\u0d1a\u0d4d\u0d1a\u0d41": 8624,
  "ihan": 8625,
  "\u2581proc": 8626,
  "\u0d28\u0d46": 8627,
  "\u2581have": 8628,
  "\u00e4ll": 8629,
  "\u2581\u0633\u0628": 8630,
  "\u0632\u064a": 8631,
  "\u2581Cat": 8632,
  "\u2581Wi": 8633,
  "\uc774\ub2e4": 8634,
  "\u2581\u0432\u0435\u043b\u0438": 8635,
  "\u2581\u0680": 8636,
  "\u2581k\u00ebt\u00eb": 8637,
  "eku": 8638,
  "\u2581\u0627\u0645\u0627": 8639,
  "\u2581dov": 8640,
  "\u2581\u0441\u043b\u043e": 8641,
  "\u2581moi": 8642,
  "iei": 8643,
  "\u2581\u0628\u06cc\u0646": 8644,
  "\u2581\u062f\u0648\u0631": 8645,
  "\u0646\u062f\u064a": 8646,
  "dio": 8647,
  "\u0627\u062f\u064a": 8648,
  "\u2581\u0db8\u0db8": 8649,
  "\u2581estar": 8650,
  "\u0a95\u0abe": 8651,
  "\u00e1ln\u00ed": 8652,
  "omat": 8653,
  "\u062f\u064a": 8654,
  "NG": 8655,
  "\u062f\u0631": 8656,
  "yat": 8657,
  "\u0bbe\u0bb2\u0bcd": 8658,
  "used": 8659,
  "\u0648\u0627\u0644": 8660,
  "wyr": 8661,
  "\u2581l\u00ed": 8662,
  "\u2581\u0646\u06c1": 8663,
  "irs": 8664,
  "isc": 8665,
  "\u2581habe": 8666,
  "\u2581\u041a\u0430\u043a": 8667,
  "\u2581mba": 8668,
  "\u4ed6\u4eec": 8669,
  "\u00e1sok": 8670,
  "\u2581Fran": 8671,
  "\u2581\uac83": 8672,
  "\u0b4d\u0b5f": 8673,
  "\u0442\u043e\u0439": 8674,
  "fel": 8675,
  "\u2581\u00da": 8676,
  "\u2581g\u00e5": 8677,
  "\u10dd\u10d3": 8678,
  "\u2581\u0e97\u0ec8\u0eb2\u0e99": 8679,
  "\u0432\u0430\u0446\u044c": 8680,
  "odo": 8681,
  "lara": 8682,
  "\u2581\u0637\u0648\u0631": 8683,
  "\u0eb1\u0e9a": 8684,
  "\u2581\u0996": 8685,
  "\u2581shi": 8686,
  "\u043b\u0438\u0439\u043d": 8687,
  "\u2581Yang": 8688,
  "uren": 8689,
  "\u2581\u0633\u062a": 8690,
  "\ucc28": 8691,
  "\u2581PC": 8692,
  "\u2581\u0c8e": 8693,
  "\u2581\u1232": 8694,
  "rd": 8695,
  "\u30d0": 8696,
  "\u2581Dagiti": 8697,
  "\u2581mycket": 8698,
  "ds": 8699,
  "\u2581Program": 8700,
  "das": 8701,
  "\u2581memiliki": 8702,
  "\u0d2f\u0d41\u0d1f\u0d46": 8703,
  "AND": 8704,
  "\u2581Sta": 8705,
  "\u2581\u0561\u0575\u0576": 8706,
  "\u043d\u043e\u0432\u0438": 8707,
  "\u2581vak": 8708,
  "\u0644\u0628": 8709,
  "\u2581v\u00f5": 8710,
  "\u2581nett": 8711,
  "\u043d\u0438\u0435\u043c": 8712,
  "\u56fd\u5bb6": 8713,
  "\u2581\u101b": 8714,
  "-6": 8715,
  "\u25811)": 8716,
  "jt": 8717,
  "ingar": 8718,
  "\u0631\u0645": 8719,
  "\u0432\u0430\u044f": 8720,
  "\u062c\u0627": 8721,
  "\u2581immer": 8722,
  "aksi": 8723,
  "\u2581nev": 8724,
  "\u2581dot": 8725,
  "\ud589": 8726,
  "\u2581bardzo": 8727,
  "\u0924\u0940\u0932": 8728,
  "\u0ac1\u0a82": 8729,
  "angk": 8730,
  "\u0103r": 8731,
  "\u0442\u044f": 8732,
  "\u2581natur": 8733,
  "\u0bc6": 8734,
  "\u2581eus": 8735,
  "\u2581\u0441\u0442": 8736,
  "\u043b\u043e\u043c": 8737,
  "-0": 8738,
  "\u0441\u0442\u0430\u0440": 8739,
  "\u2581\u0433\u044d\u0436": 8740,
  "\u2581\u0a39\u0a28": 8741,
  "\uc601": 8742,
  "\u0432\u0430\u0440": 8743,
  "ebi": 8744,
  "\u25812004": 8745,
  "\u0579": 8746,
  "\u2581einfach": 8747,
  "\u2581mac": 8748,
  "\u2581\u0aa8\u0abe": 8749,
  "umat": 8750,
  "\u2581Cap": 8751,
  "\u2581\u00eatre": 8752,
  "\u2581Eesti": 8753,
  "\u2581minden": 8754,
  "urat": 8755,
  "cos": 8756,
  "\u2581\u043b\u043e": 8757,
  "\u2581vl": 8758,
  "\u2581rek": 8759,
  "\u0628\u06cc": 8760,
  "\u2581matag": 8761,
  "\u2581l\u01b0\u1ee3ng": 8762,
  "\u05e2\u05d8": 8763,
  "\u0117jo": 8764,
  "\uc6b0": 8765,
  "\u0939\u093f": 8766,
  "\u2581\u1796": 8767,
  "amer": 8768,
  "\u2581inst": 8769,
  "\u10db\u10d4": 8770,
  "\u2581\u0926\u093f\u0928": 8771,
  "???": 8772,
  "ell\u00e4": 8773,
  "aly": 8774,
  "\u0d28\u0d4d\u0d28": 8775,
  "\u2581190": 8776,
  "\u043b\u0430\u0441\u044c": 8777,
  "\u2581ref": 8778,
  "\u0cbf\u0ca6\u0ccd\u0ca6": 8779,
  "\u2581rus": 8780,
  "\u2581\u05d1\u05e9": 8781,
  "\u043a\u0430\u0445": 8782,
  "\u0257o": 8783,
  "\u2581\u00c5": 8784,
  "\u2581\u043d\u0435\u043c\u0430": 8785,
  "\u2581material": 8786,
  "\u0d35\u0d3e": 8787,
  "\u043a\u0430\u043d": 8788,
  "opa": 8789,
  "\u2581\u0648\u064a\u0648": 8790,
  "\u2581\u1208\u1218": 8791,
  "\u05d5\u05d0": 8792,
  "lar\u0131n\u0131n": 8793,
  "l\u0131k": 8794,
  "\u2581\u0627\u0633\u0627\u0646": 8795,
  "\u2581\u0626\u064a": 8796,
  "\u2581\u0938\u0930\u0915\u093e\u0930": 8797,
  "\u2581hvis": 8798,
  "aler": 8799,
  "\u2581\u0441\u0442\u0438": 8800,
  "\u0e04\u0e23\u0e31\u0e1a": 8801,
  "\u2581laga": 8802,
  "\u2581Een": 8803,
  "\u0123": 8804,
  "\u2581\uc0c1": 8805,
  "\u2581\u0dbb\u0dd3": 8806,
  "\u2581sha": 8807,
  "\u0a87": 8808,
  "\u2581wieder": 8809,
  "wala": 8810,
  "\u2581\u05e9\u05d8": 8811,
  "\u2581ep": 8812,
  "\u2581datt": 8813,
  "\u2581fem": 8814,
  "\u2581\u0c9c": 8815,
  "\u0442\u043a\u0438": 8816,
  "\u2581po\u010d": 8817,
  "\u2581fit": 8818,
  "\u0cca": 8819,
  "\u0437\u043d\u0438": 8820,
  "\u0626\u064a": 8821,
  "\u0cbe\u0ca8": 8822,
  "\u0434\u0430\u0440\u044b": 8823,
  "\u2581ulan": 8824,
  "\u2581\u0d2c": 8825,
  "erer": 8826,
  "\u2581\u00ebnner": 8827,
  "\u308b\u3068": 8828,
  "\u2581gut": 8829,
  "\u2581eis": 8830,
  "\u2581\u0430\u0432\u0442\u043e": 8831,
  "\u2581\u0433\u043e\u0434\u0438\u043d\u0435": 8832,
  "\u2581comun": 8833,
  "\u2581tant": 8834,
  "\u2581sop": 8835,
  "raj": 8836,
  "ninger": 8837,
  "\u0dcf\u0dbb": 8838,
  "elijk": 8839,
  "anten": 8840,
  "\u2581allt": 8841,
  "tab": 8842,
  "\u2581maak": 8843,
  "\u2581mo\u017ce": 8844,
  "\u0440\u0456\u0432": 8845,
  "\uac1c": 8846,
  "\u0441\u0446\u044c": 8847,
  "\u2581\u092f": 8848,
  "ShareAlike": 8849,
  "\u2581Ini": 8850,
  "ogu": 8851,
  "enu": 8852,
  "\u2581\u0930\u093e\u091c": 8853,
  "\u2581Foundation": 8854,
  "\u2581qa": 8855,
  "\u2581\u0b2c\u0b3e": 8856,
  "hn": 8857,
  "\u0441\u043b\u0438": 8858,
  "teri": 8859,
  "\u25812016.": 8860,
  "\u2581\u041f\u0440\u0430": 8861,
  "\u2581e\u00f0a": 8862,
  "\u2581\u05d4\u05e6": 8863,
  "\u2581Barcelona": 8864,
  "\u2581\u05d0\u05e0\u05d9": 8865,
  "\u53f0": 8866,
  "\u2581\u0567\u0580": 8867,
  "\u2581v\u00ed": 8868,
  "\u6559": 8869,
  "\u0e01\u0e23": 8870,
  "\u03bf\u03bd": 8871,
  "\u3088\u3046": 8872,
  "\u2581Esta": 8873,
  "\u0e23\u0e31\u0e1a": 8874,
  "\u2581\ud574": 8875,
  "\u6307": 8876,
  "\u09b2\u09c7": 8877,
  "\u2581\u062e\u0628\u0631": 8878,
  "\u0eb2\u0e8d": 8879,
  "\u2581hiyo": 8880,
  "\u09a1": 8881,
  "\u0e01\u0e23\u0e30": 8882,
  "lay": 8883,
  "\u017eu": 8884,
  "\u0e9e": 8885,
  "\u2581\u0ead": 8886,
  "bud": 8887,
  "\u2581d\u00e5": 8888,
  "\u2581\u09ad": 8889,
  "\u4f4f": 8890,
  "\u0e42": 8891,
  "\u2581prest": 8892,
  "OC": 8893,
  "\u89e3": 8894,
  "\u2581gam": 8895,
  "IB": 8896,
  "\u0ca7": 8897,
  "85": 8898,
  "\u03bc\u03c0": 8899,
  "\ub2f9": 8900,
  "\u2581rum": 8901,
  "kir": 8902,
  "zbekiston": 8903,
  "\u2581\u06a9\u0634\u0648\u0631": 8904,
  "\u03c4\u03af": 8905,
  "\u2581\u0a35\u0a3f\u0a1a": 8906,
  "\u0643\u0645": 8907,
  "\u043b\u044c\u043d\u044b\u0445": 8908,
  "\u03c3\u03c4\u03b5": 8909,
  "\u2581\u0a15\u0a47": 8910,
  "may": 8911,
  "\u2581\u10e9": 8912,
  "\u0646\u062f\u0648": 8913,
  "\u0447\u043d\u043e\u0433\u043e": 8914,
  "\u2581serta": 8915,
  "\u2581AR": 8916,
  "\u2581t\u00e9h": 8917,
  "\u2581\u17a2\u17d2\u1793\u1780": 8918,
  "\u2581ville": 8919,
  "\u0131b": 8920,
  "\u00e4tt": 8921,
  "\u2581zdrav": 8922,
  "\u0259d\u0259": 8923,
  "\u2581ime": 8924,
  "\u2581\u062d\u06a9\u0648\u0645\u062a": 8925,
  "\u0627\u0631\u0647": 8926,
  "\u03ba\u03cc": 8927,
  "\u2581IP": 8928,
  "\u2581\u0648\u0633": 8929,
  "\u0bbe\u0bb0": 8930,
  "\u2581sent": 8931,
  "\u2581Far": 8932,
  "\u2581more": 8933,
  "\u0565\u0580\u0568": 8934,
  "ilia": 8935,
  "\u00e9se": 8936,
  "\u2581\u0639\u0644\u064a\u0647": 8937,
  "\u2581\uc2a4": 8938,
  "\u2581\ubc14": 8939,
  "\u0967": 8940,
  "\u7121": 8941,
  "essen": 8942,
  "ian": 8943,
  "\u53ef\u80fd": 8944,
  "angen": 8945,
  "\u2581jika": 8946,
  "\uc5f0": 8947,
  "\u2581\u0e84": 8948,
  "\u2581Bro": 8949,
  "\u03c4\u03b1\u03b9": 8950,
  "\u2581''": 8951,
  "cis": 8952,
  "\u0b28\u0b4d": 8953,
  "\uc624": 8954,
  "\u2581tipo": 8955,
  "\u2581\u05d5\u05d1": 8956,
  "\uad6d": 8957,
  "\u2581\u0e17": 8958,
  "\u2581yen": 8959,
  "\u2581\u03bc\u03bf\u03c5": 8960,
  "\u2581enc": 8961,
  "\u2581\u0435\u0434\u043d\u0430": 8962,
  "\u0b24\u0b3f": 8963,
  "\u093f\u0915\u093e": 8964,
  "\u2581iy": 8965,
  "\u2581\u05d1\u05e2": 8966,
  "\u0921\u093c": 8967,
  "\u2581fara": 8968,
  ".[5]": 8969,
  "\u2581manipud": 8970,
  "\u0a41": 8971,
  "skim": 8972,
  "\u2581\u043d\u044f\u043c\u0430": 8973,
  "\u2581\u0627\u067e\u0646\u06d2": 8974,
  "\u05d3\u05e8": 8975,
  "\u0947\u0930": 8976,
  "\u2581molupyo": 8977,
  "rec": 8978,
  "\u2581nuo": 8979,
  "\u2581t\u1ef1": 8980,
  "\u2581h\u00e1": 8981,
  "\u0441\u043f\u0435": 8982,
  "\u2581Peng": 8983,
  "66": 8984,
  "\u2581klub": 8985,
  "\u12d8": 8986,
  "\u2581ente": 8987,
  "\u2581\u0414\u0438": 8988,
  "\u03b5\u03bd": 8989,
  "\uc5c5": 8990,
  "\u2581\u0d28\u0d3f": 8991,
  "\ubc29": 8992,
  "\u2581beliau": 8993,
  "\u2581\u0584": 8994,
  "\u2581hang": 8995,
  "acha": 8996,
  "\u2581Star": 8997,
  "\u0ec4\u0e94\u0ec9": 8998,
  "\u2581nik": 8999,
  "\u0439\u044b": 9000,
  "\u2581meu": 9001,
  "\u2581elektron": 9002,
  "\u96c6": 9003,
  "ads": 9004,
  "\u2581\u0431\u0435\u0448\u0435": 9005,
  "\u2581\u0439\u043e\u0433\u043e": 9006,
  "\u4f55": 9007,
  "dat": 9008,
  "\u0442\u043e\u0440\u0438": 9009,
  "\u308f": 9010,
  "\u2581600": 9011,
  "iona": 9012,
  "\u2581\u0a32": 9013,
  "\u2581\u010das": 9014,
  "\u2581\u067e\u0646\u0647\u0646\u062c\u064a": 9015,
  "\u2581ocks\u00e5": 9016,
  "ibh": 9017,
  "yor": 9018,
  "\u2581\u0e43\u0e19": 9019,
  "\u2581\u1265": 9020,
  "\u2581ilk": 9021,
  "\u258106": 9022,
  "\u2581saa": 9023,
  "\u2581jeho": 9024,
  "\u2581ch\u1ea5t": 9025,
  "\u043b\u0430\u0441\u044f": 9026,
  "\u307e\u3059": 9027,
  "\u0915\u094d": 9028,
  "\u2581kend": 9029,
  "\u043b\u043d\u0430": 9030,
  "\u795e": 9031,
  "\u2581\u0645\u0635": 9032,
  "yin": 9033,
  "\u0937": 9034,
  "\u1278\u12cd": 9035,
  "\u05d1\u05d9\u05dd": 9036,
  "\u0397": 9037,
  "\u017een": 9038,
  "\u2581\u043a\u043e\u0439\u0442\u043e": 9039,
  "acji": 9040,
  "\u09cd\u09ac": 9041,
  "\u307e\u3067": 9042,
  "\u2581sammen": 9043,
  "\u2581bom": 9044,
  "\u2581dende": 9045,
  "\u0435\u043a": 9046,
  "day": 9047,
  "\u04bb": 9048,
  "\u2019,": 9049,
  "\u2581enger": 9050,
  "tive": 9051,
  "\u2581\u0645\u0648\u0631\u062f": 9052,
  "vil": 9053,
  "\u043c\u0438\u0442\u0435": 9054,
  "oke": 9055,
  "\u2581\ub3d9": 9056,
  "\u0441\u0442\u0432\u043e\u0442\u043e": 9057,
  "\u2581\u0438\u043c\u0435": 9058,
  "\u2581\u0e41\u0e15\u0e48": 9059,
  "\u2581rumah": 9060,
  "\u2581IS": 9061,
  "\u2581hol": 9062,
  "nam": 9063,
  "ock": 9064,
  "\u0d2e\u0d4d\u0d2a": 9065,
  "\u2581institu": 9066,
  "irk": 9067,
  "\ub824": 9068,
  "\u043b\u0430\u0433\u0430": 9069,
  "\u0e15\u0e34": 9070,
  "\u5e38": 9071,
  "\u2581gali": 9072,
  "--": 9073,
  "\u043a\u0430\u043c": 9074,
  "\u0d2f\u0d3e\u0d23\u0d4d": 9075,
  "\u2581duke": 9076,
  "\u093f\u092f\u093e": 9077,
  "\u2581fiz": 9078,
  "\u00e9i": 9079,
  "\u20ac": 9080,
  "\u2581rend": 9081,
  "\u010dky": 9082,
  "\u7814\u7a76": 9083,
  "\u2581\u092d\u0928\u0947": 9084,
  "\u0a71": 9085,
  "\u043a\u0442\u0438": 9086,
  "\u2581Und": 9087,
  "\u9593": 9088,
  "ches": 9089,
  "\u2581\u091f": 9090,
  "\u03bd\u03b5": 9091,
  "\u2581mee": 9092,
  "\u2581Cons": 9093,
  "\u2581el\u0151": 9094,
  "ree": 9095,
  "\u53cd": 9096,
  "jd": 9097,
  "\u2581k\u1ebft": 9098,
  "\u044e\u0442\u044c\u0441\u044f": 9099,
  "\u2581\u179a\u1794\u179f\u17cb": 9100,
  "inio": 9101,
  "\u0642\u0644": 9102,
  "\u2581Gra": 9103,
  "\u0442\u0440\u043e": 9104,
  "\u042b": 9105,
  "im\u0105": 9106,
  "iver": 9107,
  "\u2581Text": 9108,
  "\u0499\u0435\u04a3": 9109,
  "\u0bb5\u0bbe": 9110,
  "\u0a32\u0a40": 9111,
  "lon": 9112,
  "\u2581\u0456\u0437": 9113,
  "\u670d\u52a1": 9114,
  "\u2581Cara": 9115,
  "\u0e31\u0e07": 9116,
  "\u2581zb": 9117,
  "\u017ea": 9118,
  "\u00f6tt": 9119,
  "\u0445\u0430\u043d": 9120,
  "\u0e32\u0e23": 9121,
  "\u2581Bank": 9122,
  "\u0645\u062f": 9123,
  "\u2581m\u00eame": 9124,
  "ciju": 9125,
  "\u1787": 9126,
  "\u2581persona": 9127,
  "\u0eb1\u0e87": 9128,
  "\u0eb1\u0e99": 9129,
  "anz": 9130,
  "\u2581\u0e9b": 9131,
  "yf": 9132,
  "\u2581v\u00e5r": 9133,
  "\u043d\u043e\u0433": 9134,
  "\u0442\u043e\u043a": 9135,
  "\u2581jira": 9136,
  "\u9a6b": 9137,
  "\u2581hl": 9138,
  "eba": 9139,
  "asz": 9140,
  "\u5df2": 9141,
  "\u0e1b\u0e23\u0e30": 9142,
  "\u2581at\u00e9": 9143,
  "\u2581\u06cc\u0648": 9144,
  "\u0d3f\u0d15": 9145,
  "\u043f\u044b": 9146,
  "\u2581\u0438\u0441": 9147,
  "\u0101d": 9148,
  "rip": 9149,
  "\u2581\u00e9v": 9150,
  "\u05e8\u05ea": 9151,
  "\u03b9\u03ba": 9152,
  "\u2581\u0648\u062c\u0648\u062f": 9153,
  "\u958b": 9154,
  "\u2581elektr": 9155,
  "\u8aaa": 9156,
  "\u1241": 9157,
  "\u2581Santa": 9158,
  "\u10d6\u10d8": 9159,
  "\u2581store": 9160,
  "\u0432\u044b\u0435": 9161,
  "\u2581\u092f\u094b": 9162,
  "\u2581\u0926\u0947\u0936": 9163,
  "\u8868\u793a": 9164,
  "\u2581\u0433\u044d\u0442\u0430": 9165,
  "\u0cbf\u0cb8": 9166,
  "\u0e44\u0e17\u0e22": 9167,
  "\u2581\u00e1n": 9168,
  "\u2581local": 9169,
  "\u05d7\u05d9": 9170,
  "\u2581Dem": 9171,
  "\u2581PS": 9172,
  "elis": 9173,
  "\u0442\u0430\u043b": 9174,
  "\u514b": 9175,
  "\u043e\u043b": 9176,
  "\u0440\u0442\u0430": 9177,
  "r\u00e9": 9178,
  "\u0441\u043e\u043d": 9179,
  "\u2581App": 9180,
  "\u2581\u05e4\u05d9": 9181,
  "ovan": 9182,
  "iac": 9183,
  "\u2581Sv": 9184,
  "jin": 9185,
  "\u0e1a\u0e49\u0e32\u0e19": 9186,
  "ahi": 9187,
  "\u2581fiscal": 9188,
  "\u0642\u0627": 9189,
  "v\u00e9": 9190,
  "\u0b3f\u0b2c": 9191,
  "\u0442\u0438\u044f": 9192,
  "\u121e": 9193,
  "\u7531": 9194,
  "\u043b\u044c\u043d\u0456": 9195,
  "\u2581\u1240": 9196,
  "\u2581\uc548": 9197,
  "amine": 9198,
  "\u010f": 9199,
  "\u2581Daytoy": 9200,
  "\u2581edi": 9201,
  "1-": 9202,
  "lio": 9203,
  "elas": 9204,
  "\u2581\u0d9c\u0dd0\u0db1": 9205,
  "\u2581\u0db6\u0dc0": 9206,
  "\u2581\u0440\u0430\u0431\u043e\u0442\u0430": 9207,
  "\u03b4\u03b1": 9208,
  "\u10ed": 9209,
  "\u2581dagat": 9210,
[...]
